..
▁「
00
="
20
....
...
。」
ur
id
do
ki
wi
▁<
doc
wiki
10
19
12
11
or
:「
?」
le
//
ti
ia
18
ed
ue
tt
ps
org
tit
edia
cur
://
zh
pedia
htt
▁id
url
title
https
">
▁title
yue
wikipedia
▁url
▁</
curid
30
。。
15
!!
000
」,
!」
16
......
14
▁2
17
50
100
13
1.
23
24
25
),
▁(
,「
200
」。
21
80
22
▁3
▁20
▁【
,」
▁[
28
29
27
60
40
99
26
.5
90
2019
」"
35
.」
「"
▁4
70
!!!!
500
31
⋯⋯
▁6
77
--
。。。
33
45
▁1.
▁2.
...」
▁5
▁-
2.
.....
▁9
88
34
▁7
▁1
89
▁《
300
1,
▁3.
▁10
2020
:00
6"
)。
2"
——
1000
199
er
on
in
85
7"
an
8"
64
」、
3"
1"
55
36
%,
........
......」
。。。。
4"
9"
)」
2000
-0
75
」、「
▁19
la
2,
48
0.
》,
150
100%
46
2018
400
▁8
:0
/2019
▁4.
38
65
:30
3.
‧‧
ar
▁12
39
~~
47
▁0
)、
49
66
。「
en
()
2021
69
**
37
)-
600
2017
3,
1/
▁C
97
▁S
67
1-
44
32
2016
800
。(
72
700
?!
▁11
:$
「"」
～～
6.
es
for
=3
95
4.
5000
="3
2-
7.
,000
68
mu
!!!!!!!!
612
,5
831
3000
__
->
3-
!!!
mula
formula
59
%。
120
5"
2014
▁2019
al
79
83
▁18
1.5
▁5.
⣿⣿
,3
▁200
78
▁M
5.
is
=2
.......
/0
----
98
▁A
/12
2015
180
ou
="2
43
721
76
):
th
(,
,6
▁B
9.
,19
777
ic
/11
01
▁15
+1
..」
▁L
▁14
▁「「
il
][
」(
2)
▁T
:1
▁P
4-
re
10%
250
──
56
▁13
▁2020
87
86
▁2018
8.
84
,9
4000
5-
2.0
42
1%
▁16
▁*
!?
el
》(
,2
▁:
,7
)">
1)
?)
2.5
2022
am
1500
10.
▁6.
▁10.
96
1811
》、
58
》。
,4
▁612
/10
74
-1
,《
▁$
ch
50%
as
▁7.
,1
94
73
,8
=24
▁17
2012
2-3
,10
」?
="24
09
at
="17
▁2021
=17
54
0.5
=23
=16
1111
/7
10000
="16
▁30
="23
▁H
」「
101
=27
2/
==
="27
》、《
▁G
57
。19
ro
08
▁R
360
▁2)
us
71
/6
....」
(),
2013
63
689
929
?(
20%
2010
52
1999
53
1200
～」
ac
1-2
ain
,200
it
:2
41
=30
5%
.0
82
)(
▁//
▁formula
ol
/11/2019
et
="30
1997
6-
4,
un
ing
110
/9
=10
7-
900
="18
▁D
▁F
="10
=18
2011
▁1)
(;
=12
:$1,
="12
0/
=13
▁「(
="15
⋯⋯」
••
721811
/4
au
=15
.........
▁W
6000
999
tion
1:
」,「
03
om
=35
1001
170
=25
=28
="13
de
="35
="28
3-4
(#
te
-20
="25
8000
‧‧‧‧
62
▁3)
$18
-10
160
ig
30%
▁s
:10
/5
140
=26
93
=33
2008
11.
:9
="26
2,3
▁9.
lt
0000
▁72
="33
▁612721811
="20
and
▁Ch
▁2017
05
⠄⠄
(19
=34
▁2016
02
▁「[
=20
-0.5
1,2
="34
130
-2
3%
!(
06
07
$10
3,4
3.5
▁I
~~~~
▁100
「",
3)
▁11.
112
▁K
2%
5,
915
」;
gt
▁■
▁12.
240
。《
ne
280
2007
480
35+
!]
▁E
/12/2019
99%
="19
aint
-12
:(
of
-18
▁N
$100
51
」!
▁23
。。。。。。。。
.8
2009
?!」
04
▁「1.
#1
▁th
2003
-11
90%
ra
▁c
he
6,
="14
=14
/3
=19
ent
81
▁「2.
@1.
,)
」」
▁@
8,
▁8.
=29
os
:2019
+2
▁,
-6
="29
,12
.9
。)
193
=22
,20
。」」
:3
****
1112
);
、「
="22
680
▁V
.4
⣿⣿⣿⣿
4-5
1400
350
456
10.1
▁50
。。。。。
380
1998
2500
2047
▁90
61
:15
(,)
____
92
ir
▁+
(4
1831
7000
ay
1929
(5
,18
19"
:1.
)#
‧‧‧
▁"
-19
30"
▁of
/8
113
7,
2005
(+
2006
128
(2)
10"
ad
=5
450
/1
:23
(18
:19
▁61272181183
-15
ag
]」
20"
~」
14"
:18
▁p
▁00
91
25%
80%
16"
24"
17"
13"
25"
▁the
+0.5
ri
:2020
$200
23"
▁J
▁2014
$500
11"
:20
18"
▁b
ong
4,5
:」
/2
15"
2004
6%
ve
................
60"
TV
ub
1600
,(
12"
um
▁24
▁()
21"
▁40
1996
▁25
2023
(2
780
40"
～～～～
(10
ter
...?
▁612721811831929
26"
70"
▁915
28"
▁...
45"
1100
:59
:45
oo
1995
27"
35"
64"
▁「3.
▁721
▁O
9000
---
4%
20000
="5
22"
29"
!!!!!
▁4)
7%
。//
15%
▁•
8.5
50"
..「
2002
▁。
..........
1800
ec
123
9,
190
to
:00-
/12/2019(
40%
9.5
,11
80"
(16
1:0
31"
▁/
!?」
/19
(3
(22
85"
99"
.....」
77"
1300
】【
88"
75"
33"
90"
8-
34"
im
ers
em
99」
▁13.
ow
2:
▁「-
20-
ation
5-6
ille
ie
ce
70%
▁m
=4
▁60
Ch
(17
10.5
[0/
▁80
#5
89"
+3
:11
$1000
1994
$50
-3
nd
▁6)
30000
=11
="11
/7/2019
270
256
],
-->
980
ap
!!」
br
8%
7.1
▁5)
(?)
‧‧‧‧‧‧
2001
ng
7.5
▁2015
▁&
▁Saint
30-
(15
365
(0
65"
(26
▁Y
4.5
]。
▁●
our
les
$5
1/3
=9
┃┃
ard
▁2000
!)
12.
ai
」)
9.29
▁1000
290
1700
▁=
2024
="9
5,6
616
(1
="4
750
op
⋯」
iu
230
928
,30
(1)
2025
▁▲
tr
:2018
:4
1.1
138
▁#
▁721811
1.2
▁2022
ang
▁f
▁500
15000
-24
2800
=8
210
ab
ont
/20
119
433
,15
125
▁※
(21
1.8
od
▁97
="8
]@1.
------
<<
▁d
-0.5/
1993
2:0
+5
▁777
255
1,000
,0
238
▁35
▁721811831
-16
》()
175
▁70
1992
li
105
423
(6
15:00
1.0
260
1991
)?
••••
1:1
0:0
(12
?]
9999
$$
———
」。」
............
220
6.9
903
1020
2046
)-30
(29
-23
▁721831
、3
$20
ung
.7
ot
oc
~~~
.2
:5
▁、
▁21
(,),
▁**
104
1990
2,000
.3
st
101111
4)
.6
320
▁「2
911
:$2,
60%
2/3
▁831
(7
▁22
,16
-0.5/-1
▁.
▁26
(9
823
5.5
:50
/6/2019
ine
ak
101112
(14
")
=6
1989
(11
55"
▁St
。。。。。。
ly
921
$300
(20
▁U
(25
,2019
、7
)/
-5
:《
||
!!!!!!
6-7
0.0
7.21
6.5
se
。[
ver
iuTV
▁in
(8
.-
922
+10
=7
res
:12
289
1.4
ph
￼￼
(24
,14
101112113
▁g
178
、2
7-8
9%
38"
168
650
:13
!!!!!!!!!!!!!!!!
▁「3
(28
～～～
]]
::
!!!」
1118
39"
(;)
▁14.
++
3:0
36"
]@
(27
288
1.7
.=
68"
="7
▁08
1823
▁2012
32"
48"
62"
63"
66"
1/10
$2000
6,7
69"
46"
1900
67"
▁a
37"
:」"
49"
ViuTV
▁15.
:35
47"
1980
ber
▁689
-4
amp
,2016
(23
41"
''
▁(1)
61"
、9
▁—
」:
44"
="6
/12/
).
95"
sur
Saint
》《
-8
$70
42"
:25
$5000
!!!!!!!
3/
▁28
▁and
-30
43"
:2021
av
、4
930
5*
+4
lo
▁2010
=.=
115
:6
,000」
ey
135
▁w
▁「...
]9.29
3500
71"
259
▁300
...........
,24
▁27
-.-
73"
1011121131111
ut
/=
74"
▁「4.
50000
76"
.1
11.5
-14
108
]929
The
,17
245
79"
●○
:2017
[[
78"
rou
1.3
=/=
103
。。。」
',
75%
、6
▁700
▁〔
1/4
72"
1.6
?」」
--------
ran
▁(2)
▁2013
▁-15:00
▁721831101111
5**
2.8
?「
,」"
、5
Mar
▁612721811831
!][
▁0.
442
118
388
,),
ign
,$
7788
,2018
ice
,100
198
,13
:40
/09
▁n
2300
550
1-0
;)
:24
▁Le
12000
0,
1984
▁Sh
7500
8964
=>
▁09
165
⋯⋯⋯
:【
/11/2019(
,2020
#12
ul
ian
102
>(
▁99
,2017
II
(32
▁929
,50
⠄⠄⠄⠄
▁「5
ill
1/2
759
-21
▁-19
3:
$2
...?」
(13
$30
iv
。」「
⠀⠀
-17
(30
====
2222
%)
905
!!!!!!!!!
109
ion
9」
ge
-13
/9/2019
/18
2:1
1117
1970
84"
▁Ro
(00
2400
[0/+0.5
696
95%
)+
ant
880
▁2011
▁h
uc
ss
87"
83"
86"
4231
81"
1949
420
0.1
11,
、8
▁
,
。
.
0
1
「
」
?
2
i
3
/
5
"
:
9
、
!
4
d
8
)
6
(
7
t
=
e
o
r
-
u
c
l
>
h
p
k
w
<
a
s
g
y
》
《
%
z
+
;
n
$
]
[
⋯
】
【
#
—
～
~
m
*
C
S
_
·
A
f
‧
'
M
T
B
b
P
@
L
&
v
─
D
I
R
|
V
G
H
F
⣿
E
•
N
O
K
W
J
x
U
■
⠄
※
○
Y
^
–
é
￼
●
〉
・
┃
→
X
↓
〈
\
↑
°
j
è
×
q
★
▲
〇
〕
Z
〔
Q
⠀
█
━
『
』
{
”
“
¥
⌐
┓
}
┏
£
┛
┗
⣶
▼
〜
▒
☆
░
É
ô
⠿
`
„
╕
⣷
â
á
│
⇛
⣠
⠈
⣾
ā
⇒
⡟
═
―
❩
❨
□
▄
⠟
⣴
✵
⠃
−
€
⢀
≠
◆
⇐
☭
⠁
ó
í
′
❙
⣀
┻
ö
╱
⢸
〞
╯
⢿
▀
❚
⠋
ü
⠙
⠻
⡇
à
±
⣦
ç
ō
⠉
←
⣼