<unk>	0
<s>	0
</s>	0
..	-0
▁「	-1
可以	-2
香港	-3
自己	-4
▁我	-5
真係	-6
都係	-7
唔係	-8
00	-9
一個	-10
都唔	-11
其實	-12
如果	-13
▁你	-14
已經	-15
覺得	-16
唔好	-17
應該	-18
好多	-19
因為	-20
="	-21
20	-22
▁但	-23
唔到	-24
唔會	-25
好似	-26
....	-27
佢地	-28
不過	-29
▁有	-30
所以	-31
問題	-32
就係	-33
可能	-34
大家	-35
係咪	-36
中國	-37
...	-38
之後	-39
點解	-40
一定	-41
▁咁	-42
。」	-43
ur	-44
id	-45
do	-46
出嚟	-47
而家	-48
ki	-49
wi	-50
▁<	-51
doc	-52
wiki	-53
呢個	-54
▁其實	-55
▁佢	-56
10	-57
其他	-58
政府	-59
唔知	-60
時間	-61
都有	-62
▁如果	-63
朋友	-64
老母	-65
19	-66
開始	-67
香港人	-68
▁唔	-69
有人	-70
美國	-71
嘅人	-72
我地	-73
見到	-74
之前	-75
▁係	-76
咁多	-77
世界	-78
一樣	-79
12	-80
依家	-81
仲有	-82
▁一	-83
只係	-84
同埋	-85
人地	-86
最後	-87
第一	-88
今日	-89
個人	-90
仲要	-91
支持	-92
都要	-93
都好	-94
成日	-95
希望	-96
11	-97
or	-98
比人	-99
屋企	-100
:「	-101
?」	-102
▁不過	-103
根本	-104
一齊	-105
都冇	-106
都會	-107
le	-108
手足	-109
//	-110
屌你	-111
連登	-112
ti	-113
機會	-114
呢啲	-115
仆街	-116
沒有	-117
有冇	-118
公司	-119
就算	-120
ia	-121
日本	-122
18	-123
ed	-124
ue	-125
大陸	-126
▁好	-127
tt	-128
ps	-129
org	-130
tit	-131
edia	-132
cur	-133
://	-134
zh	-135
pedia	-136
htt	-137
▁id	-138
url	-139
title	-140
https	-141
">	-142
▁title	-143
yue	-144
wikipedia	-145
▁url	-146
▁</	-147
curid	-148
30	-149
都無	-150
垃圾	-151
以為	-152
。。	-153
國家	-154
星期	-155
幾多	-156
15	-157
完全	-158
有咩	-159
巴打	-160
繼續	-161
知道	-162
或者	-163
真係好	-164
▁所以	-165
支那	-166
兩個	-167
我們	-168
你地	-169
!!	-170
邊個	-171
000	-172
本身	-173
臺灣	-174
需要	-175
會唔會	-176
」,	-177
一次	-178
時候	-179
社會	-180
樓主	-181
佢哋	-182
雖然	-183
就會	-184
個個	-185
俾人	-186
▁呢	-187
但係	-188
▁睇	-189
少少	-190
所有	-191
記得	-192
唔洗	-193
影響	-194
然後	-195
嘅話	-196
以前	-197
唔同	-198
!」	-199
又係	-200
地方	-201
唔可以	-202
正常	-203
個月	-204
鍾意	-205
學生	-206
▁想	-207
分鐘	-208
全部	-209
▁因為	-210
原來	-211
第二	-212
中共	-213
情況	-214
他們	-215
淨係	-216
都可以	-217
16	-218
民主	-219
即係	-220
▁最	-221
入面	-222
▁無	-223
唔想	-224
係咁	-225
......	-226
開心	-227
14	-228
▁2	-229
重要	-230
發現	-231
直接	-232
運動	-233
▁當	-234
都未	-235
一直	-236
又唔	-237
任何	-238
屌你老母	-239
17	-240
50	-241
政治	-242
▁大	-243
▁香港	-244
代表	-245
有無	-246
不如	-247
會有	-248
▁同	-249
▁上	-250
感覺	-251
冇人	-252
自由	-253
生活	-254
100	-255
▁講	-256
▁今	-257
好撚	-258
工作	-259
▁點解	-260
啲人	-261
表示	-262
▁而家	-263
出現	-264
發生	-265
認為	-266
基本	-267
國際	-268
去到	-269
外國	-270
經濟	-271
▁唔係	-272
警察	-273
▁個	-274
關係	-275
13	-276
▁而	-277
搞到	-278
1.	-279
唔夠	-280
要求	-281
黑警	-282
英國	-283
睇吓	-284
特別	-285
▁但係	-286
市民	-287
唔多	-288
唔識	-289
女人	-290
男人	-291
都唔會	-292
行動	-293
分別	-294
日日	-295
方法	-296
接受	-297
決定	-298
一日	-299
能力	-300
不是	-301
做到	-302
討論	-303
除咗	-304
咁樣	-305
▁要	-306
我都	-307
嘅野	-308
有啲	-309
一定要	-310
同佢	-311
落去	-312
▁屌	-313
23	-314
▁又	-315
無人	-316
24	-317
成個	-318
25	-319
的人	-320
好好	-321
▁同埋	-322
▁唔好	-323
結果	-324
同你	-325
電話	-326
好多人	-327
我哋	-328
),	-329
意思	-330
睇到	-331
▁(	-332
活動	-333
反而	-334
抗爭	-335
,「	-336
200	-337
新聞	-338
安全	-339
我覺得	-340
發展	-341
成功	-342
」。	-343
明明	-344
比較	-345
21	-346
幾年	-347
都唔知	-348
部分	-349
架啦	-350
試過	-351
示威	-352
相信	-353
就是	-354
出去	-355
準備	-356
所謂	-357
佢係	-358
▁冇	-359
遊行	-360
好過	-361
諗住	-362
為咗	-363
幾個	-364
即刻	-365
有一	-366
醫生	-367
返工	-368
獨立	-369
有個	-370
鐘意	-371
件事	-372
80	-373
大學	-374
一個人	-375
幾時	-376
記者	-377
同我	-378
清楚	-379
今次	-380
得好	-381
甚至	-382
22	-383
平時	-384
只要	-385
選擇	-386
議員	-387
慢慢	-388
聽日	-389
▁3	-390
其中	-391
老豆	-392
有得	-393
條友	-394
事實	-395
過去	-396
立法	-397
女仔	-398
對方	-399
唔撚	-400
條女	-401
幫手	-402
最好	-403
人士	-404
包括	-405
連登仔	-406
普通	-407
▁20	-408
球員	-409
上面	-410
就要	-411
▁依家	-412
警方	-413
英文	-414
另一	-415
只有	-416
又要	-417
▁到	-418
真心	-419
好難	-420
▁【	-421
原因	-422
嚟講	-423
,」	-424
成為	-425
建議	-426
多人	-427
咁撚	-428
▁對	-429
突然	-430
比你	-431
就可以	-432
差唔多	-433
證明	-434
什麼	-435
應該係	-436
起碼	-437
點樣	-438
而且	-439
▁呢個	-440
▁大家	-441
有錢	-442
係你	-443
入去	-444
班人	-445
做乜	-446
事件	-447
同時	-448
唔得	-449
▁[	-450
宜家	-451
▁之前	-452
例如	-453
更加	-454
嗰陣	-455
另外	-456
咗個	-457
28	-458
講到	-459
其他人	-460
都唔係	-461
29	-462
終於	-463
行為	-464
先係	-465
主要	-466
▁真係	-467
仲係	-468
文化	-469
肯定	-470
有幾	-471
27	-472
反對	-473
嘅時候	-474
咗佢	-475
60	-476
一下	-477
我就	-478
多啲	-479
跟住	-480
選舉	-481
返嚟	-482
這個	-483
我係	-484
當時	-485
一年	-486
40	-487
你係	-488
現在	-489
不會	-490
當然	-491
方面	-492
歷史	-493
可唔可以	-494
▁中	-495
▁可能	-496
文宣	-497
咁嘅	-498
左右	-499
搵到	-500
勇武	-501
人民	-502
99	-503
點知	-504
處理	-505
▁我覺得	-506
果陣	-507
就得	-508
不能	-509
簡單	-510
申請	-511
都幾	-512
永遠	-513
十年	-514
▁仲有	-515
▁好似	-516
和理	-517
藍絲	-518
辛苦	-519
▁利	-520
我的	-521
學校	-522
自然	-523
緊要	-524
資料	-525
唔使	-526
電視	-527
通常	-528
共產	-529
努力	-530
巴士	-531
做咩	-532
聽到	-533
移民	-534
第一次	-535
有時	-536
▁係咪	-537
今年	-538
目標	-539
明顯	-540
身體	-541
嗰啲	-542
投票	-543
▁雖然	-544
只會	-545
係有	-546
認真	-547
精神	-548
幾日	-549
解釋	-550
26	-551
飛機	-552
.5	-553
放棄	-554
自殺	-555
佢嘅	-556
出來	-557
人工	-558
好大	-559
▁今日	-560
點會	-561
▁打	-562
中心	-563
▁希望	-564
上去	-565
離開	-566
都得	-567
解決	-568
進行	-569
研究	-570
比佢	-571
只是	-572
和理非	-573
多數	-574
最大	-575
我唔	-576
改變	-577
部份	-578
調查	-579
服務	-580
問吓	-581
嚴重	-582
▁人地	-583
▁不	-584
攻擊	-585
市場	-586
▁就算	-587
90	-588
▁佢地	-589
價值	-590
▁樓主	-591
太多	-592
當年	-593
一早	-594
咁大	-595
咁講	-596
作為	-597
個陣	-598
未來	-599
▁每	-600
就唔	-601
咗好多	-602
定係	-603
一係	-604
都話	-605
林鄭	-606
▁人	-607
一隻	-608
2019	-609
立法會	-610
保護	-611
▁仲	-612
考慮	-613
電影	-614
講緊	-615
銀行	-616
有關	-617
遊戲	-618
果個	-619
」"	-620
以上	-621
法律	-622
嘅係	-623
多謝	-624
主義	-625
的話	-626
計劃	-627
控制	-628
大把	-629
嘅事	-630
35	-631
就話	-632
角色	-633
後生	-634
最多	-635
撚咗	-636
先會	-637
留意	-638
係香港	-639
▁有冇	-640
.」	-641
現實	-642
不斷	-643
▁之後	-644
中國人	-645
▁用	-646
都係咁	-647
「"	-648
就好	-649
▁唔知	-650
屋企人	-651
明白	-652
入嚟	-653
▁話	-654
身邊	-655
▁成	-656
唔出	-657
以後	-658
興趣	-659
巖巖	-660
全世界	-661
咩事	-662
▁4	-663
一路	-664
又話	-665
小心	-666
係要	-667
試吓	-668
係好	-669
這樣	-670
▁我都	-671
撚樣	-672
口罩	-673
▁再	-674
撚到	-675
位置	-676
壓力	-677
變成	-678
次次	-679
教育	-680
存在	-681
各位	-682
▁做	-683
真正	-684
革命	-685
合理	-686
冇得	-687
收皮	-688
非常	-689
幾好	-690
責任	-691
示威者	-692
就有	-693
70	-694
▁老	-695
意見	-696
共產黨	-697
使用	-698
人都	-699
▁新	-700
第三	-701
係佢	-702
買咗	-703
▁我地	-704
你唔	-705
面對	-706
前線	-707
廢老	-708
▁屌你老母	-709
好耐	-710
到佢	-711
同學	-712
!!!!	-713
先有	-714
隔離	-715
見過	-716
律師	-717
人嘅	-718
一般	-719
回應	-720
▁咪	-721
組織	-722
▁利申	-723
就知	-724
提供	-725
到你	-726
嘅嘢	-727
到時	-728
係咩	-729
死咗	-730
投資	-731
女朋友	-732
過咗	-733
理由	-734
始終	-735
老婆	-736
出咗	-737
係因為	-738
係我	-739
唔明	-740
嗰個	-741
得到	-742
▁原來	-743
消息	-744
醫院	-745
又有	-746
還是	-747
做野	-748
泛民	-749
變咗	-750
加上	-751
絕對	-752
竟然	-753
集會	-754
俾你	-755
反應	-756
啱啱	-757
下次	-758
地區	-759
除非	-760
之間	-761
一種	-762
老師	-763
萬人	-764
擔心	-765
得出	-766
到咁	-767
能夠	-768
你個	-769
節目	-770
比賽	-771
叫人	-772
▁就	-773
一個月	-774
表現	-775
國安	-776
都是	-777
環境	-778
人的	-779
一步	-780
暫時	-781
參與	-782
唔住	-783
不同	-784
基本上	-785
想要	-786
▁由	-787
究竟	-788
廣東	-789
佢個	-790
無得	-791
九龍	-792
500	-793
一定係	-794
身份	-795
但我	-796
自己嘅	-797
一句	-798
生意	-799
▁根本	-800
故事	-801
建制	-802
31	-803
又唔係	-804
恐怖	-805
▁小	-806
年前	-807
值得	-808
相關	-809
▁應該	-810
如何	-811
⋯⋯	-812
▁以前	-813
五毛	-814
▁6	-815
人員	-816
癡線	-817
韓國	-818
77	-819
有機會	-820
委員	-821
一陣	-822
仲未	-823
幫你	-824
系統	-825
每日	-826
至少	-827
上嚟	-828
現場	-829
分化	-830
出街	-831
比我	-832
技術	-833
實際	-834
--	-835
。。。	-836
唯一	-837
結婚	-838
係到	-839
▁等	-840
▁仲要	-841
他的	-842
33	-843
唔少	-844
返去	-845
未必	-846
一切	-847
議會	-848
容易	-849
一條	-850
暴力	-851
我會	-852
主角	-853
▁最後	-854
甚麼	-855
咪又係	-856
曾經	-857
先可以	-858
管理	-859
附近	-860
被捕	-861
時代	-862
45	-863
收到	-864
你嘅	-865
個鐘	-866
懷疑	-867
法國	-868
利益	-869
破壞	-870
同事	-871
從來	-872
▁啲	-873
讀書	-874
諗過	-875
不要	-876
今晚	-877
廣告	-878
主席	-879
理解	-880
全球	-881
都知	-882
▁1.	-883
食飯	-884
公屋	-885
冇乜	-886
打到	-887
男朋友	-888
根據	-889
▁自己	-890
公開	-891
▁然後	-892
合作	-893
宣傳	-894
足球	-895
咁耐	-896
小時	-897
行政	-898
人生	-899
正式	-900
▁2.	-901
經驗	-902
更多	-903
重點	-904
一場	-905
以及	-906
我想	-907
長期	-908
係度	-909
中學	-910
分手	-911
俾佢	-912
一邊	-913
之外	-914
覺得自己	-915
本土	-916
目的	-917
主動	-918
▁阿	-919
條例	-920
制度	-921
歐洲	-922
反正	-923
快啲	-924
中文	-925
自己的	-926
入到	-927
政權	-928
方向	-929
講過	-930
▁屌你	-931
...」	-932
▁即係	-933
心理	-934
這些	-935
爭取	-936
期間	-937
內地	-938
手機	-939
旅行	-940
說話	-941
到底	-942
▁可以	-943
已經係	-944
必須	-945
▁巴打	-946
被告	-947
感情	-948
多過	-949
後面	-950
立場	-951
認同	-952
本來	-953
北京	-954
好想	-955
唔通	-956
細個	-957
人哋	-958
喺度	-959
諗吓	-960
大量	-961
方式	-962
小朋友	-963
人類	-964
多次	-965
有問題	-966
父母	-967
▁出	-968
是否	-969
內容	-970
提出	-971
多咗	-972
▁5	-973
▁連	-974
武器	-975
即使	-976
▁咁你	-977
分析	-978
同一	-979
走咗	-980
到仆街	-981
呢樣	-982
訴求	-983
通過	-984
▁-	-985
話佢	-986
唔算	-987
做咗	-988
唔敢	-989
辦法	-990
落嚟	-991
交通	-992
唔記得	-993
呢種	-994
你哋	-995
▁香港人	-996
起來	-997
▁正	-998
受到	-999
▁明明	-1000
電腦	-1001
德國	-1002
我諗	-1003
去咗	-1004
尊重	-1005
中間	-1006
上的	-1007
證據	-1008
政策	-1009
入咗	-1010
無法	-1011
年代	-1012
一半	-1013
▁請	-1014
▁真	-1015
2.	-1016
單位	-1017
網上	-1018
程度	-1019
▁在	-1020
講野	-1021
你要	-1022
心態	-1023
至於	-1024
警員	-1025
了一	-1026
吸引	-1027
.....	-1028
出聲	-1029
呢度	-1030
資源	-1031
裝修	-1032
好快	-1033
邊度	-1034
經歷	-1035
經過	-1036
隨時	-1037
叫佢	-1038
無論	-1039
我要	-1040
依個	-1041
你有	-1042
毒撚	-1043
情緒	-1044
失敗	-1045
啲咩	-1046
投訴	-1047
城市	-1048
未有	-1049
兩年	-1050
一名	-1051
民意	-1052
幾次	-1053
係唔係	-1054
好有	-1055
▁比	-1056
不可	-1057
健康	-1058
一定會	-1059
方便	-1060
公園	-1061
的確	-1062
大大	-1063
▁9	-1064
堅持	-1065
港共	-1066
罷工	-1067
加油	-1068
一開始	-1069
當中	-1070
中華	-1071
原本	-1072
風險	-1073
休息	-1074
▁班	-1075
算啦	-1076
乜撚	-1077
▁見到	-1078
仲好	-1079
瞭解	-1080
不了	-1081
唔該	-1082
畢業	-1083
危險	-1084
加入	-1085
的是	-1086
空間	-1087
88	-1088
這是	-1089
每次	-1090
一世	-1091
也是	-1092
目前	-1093
34	-1094
就唔會	-1095
負責	-1096
專業	-1097
冠軍	-1098
會員	-1099
諗起	-1100
▁去	-1101
就無	-1102
資格	-1103
委員會	-1104
▁本身	-1105
到我	-1106
同人	-1107
音樂	-1108
年輕	-1109
咁做	-1110
先啦	-1111
▁7	-1112
效果	-1113
令人	-1114
疫苗	-1115
三個	-1116
家庭	-1117
細路	-1118
舒服	-1119
球隊	-1120
仍然	-1121
做得	-1122
分享	-1123
啦啦	-1124
寧願	-1125
小學	-1126
夜晚	-1127
個樣	-1128
澳門	-1129
加埋	-1130
你老母	-1131
身上	-1132
國安法	-1133
▁喺	-1134
咁好	-1135
▁好多	-1136
麻煩	-1137
咁多人	-1138
轉頭	-1139
弱智	-1140
因此	-1141
中央	-1142
上網	-1143
力量	-1144
宣佈	-1145
就真係	-1146
先生	-1147
▁1	-1148
半年	-1149
大部分	-1150
的一	-1151
▁前	-1152
知唔知	-1153
人權	-1154
都仲	-1155
質素	-1156
兄弟	-1157
報告	-1158
成員	-1159
你講	-1160
以下	-1161
完成	-1162
做過	-1163
▁得	-1164
價錢	-1165
都算	-1166
睇過	-1167
▁成日	-1168
有幾多	-1169
取消	-1170
最終	-1171
距離	-1172
89	-1173
最近	-1174
成立	-1175
▁《	-1176
家人	-1177
標準	-1178
歡迎	-1179
你話	-1180
周圍	-1181
中意	-1182
集中	-1183
工程	-1184
也不	-1185
▁推	-1186
數據	-1187
可惜	-1188
點解要	-1189
300	-1190
兩日	-1191
制裁	-1192
你們	-1193
一點	-1194
最高	-1195
意義	-1196
免費	-1197
唔好再	-1198
拍拖	-1199
係無	-1200
▁另外	-1201
英超	-1202
的事	-1203
生命	-1204
又好	-1205
思想	-1206
性格	-1207
支那人	-1208
表達	-1209
禮拜	-1210
條件	-1211
我有	-1212
攬炒	-1213
地鐵	-1214
傷害	-1215
嘅地方	-1216
超過	-1217
意識	-1218
十幾	-1219
成本	-1220
蘋果	-1221
走去	-1222
增加	-1223
講咗	-1224
個個都	-1225
你的	-1226
你就	-1227
元朗	-1228
起身	-1229
看到	-1230
參加	-1231
1,	-1232
總統	-1233
對於	-1234
就冇	-1235
叫我	-1236
靚仔	-1237
港人	-1238
唔駛	-1239
聯合	-1240
劇情	-1241
真係要	-1242
成班	-1243
果時	-1244
商場	-1245
設計	-1246
▁3.	-1247
對面	-1248
係點	-1249
收入	-1250
動物	-1251
通知	-1252
▁一個	-1253
▁未	-1254
▁買	-1255
兩隻	-1256
▁美國	-1257
重新	-1258
幫佢	-1259
▁10	-1260
有好多	-1261
純粹	-1262
殺人	-1263
2020	-1264
之一	-1265
頭先	-1266
你自己	-1267
男仔	-1268
果啲	-1269
道理	-1270
用嚟	-1271
和平	-1272
批評	-1273
屯門	-1274
實力	-1275
都覺得	-1276
想知	-1277
關注	-1278
又會	-1279
安排	-1280
員工	-1281
同樣	-1282
人口	-1283
戇鳩	-1284
半場	-1285
聯賽	-1286
▁食	-1287
無咩	-1288
機場	-1289
▁有冇人	-1290
▁吓	-1291
習慣	-1292
送中	-1293
剩係	-1294
一啲	-1295
自動	-1296
叫你	-1297
進入	-1298
▁全	-1299
▁有時	-1300
一代	-1301
指出	-1302
▁你地	-1303
人數	-1304
去做	-1305
貿易	-1306
:00	-1307
6"	-1308
真係有	-1309
拒絕	-1310
語言	-1311
)。	-1312
▁三	-1313
▁點	-1314
首先	-1315
教練	-1316
小小	-1317
態度	-1318
留言	-1319
不知	-1320
2"	-1321
班狗	-1322
▁中國	-1323
打算	-1324
等於	-1325
係一個	-1326
▁聽	-1327
穩定	-1328
狀態	-1329
冇咩	-1330
▁有無	-1331
——	-1332
大佬	-1333
好啲	-1334
嘅問題	-1335
民族	-1336
尤其	-1337
死人	-1338
▁開	-1339
介紹	-1340
▁今次	-1341
▁就係	-1342
被人	-1343
利用	-1344
上下	-1345
科技	-1346
司機	-1347
願意	-1348
酒店	-1349
唔起	-1350
本地	-1351
1000	-1352
得返	-1353
前面	-1354
聲音	-1355
死亡	-1356
對手	-1357
黃店	-1358
等等	-1359
▁而且	-1360
不嬲	-1361
唔講	-1362
做唔到	-1363
記住	-1364
出面	-1365
全家	-1366
真的	-1367
不停	-1368
一間	-1369
一起	-1370
旺角	-1371
日子	-1372
老闆	-1373
平均	-1374
▁他	-1375
好似係	-1376
又無	-1377
回覆	-1378
另一個	-1379
科學	-1380
失去	-1381
佢有	-1382
令到	-1383
日期	-1384
動作	-1385
199	-1386
道德	-1387
感到	-1388
做緊	-1389
▁不如	-1390
顯示	-1391
幾耐	-1392
上次	-1393
睇完	-1394
為了	-1395
浪費	-1396
可能會	-1397
話要	-1398
你想	-1399
由於	-1400
自己係	-1401
法院	-1402
個位	-1403
一大	-1404
er	-1405
on	-1406
介意	-1407
面前	-1408
▁兩	-1409
人係	-1410
思考	-1411
▁我諗	-1412
畫面	-1413
媒體	-1414
睇唔到	-1415
▁當然	-1416
印度	-1417
過程	-1418
▁我係	-1419
公眾	-1420
有乜	-1421
個啲	-1422
佢唔	-1423
功能	-1424
in	-1425
餐廳	-1426
絲打	-1427
更新	-1428
女性	-1429
男子	-1430
個名	-1431
85	-1432
言論	-1433
保持	-1434
門口	-1435
▁想問	-1436
又冇	-1437
▁依	-1438
得咁	-1439
個仔	-1440
▁呢啲	-1441
改善	-1442
你班	-1443
話我	-1444
消費	-1445
▁除咗	-1446
這種	-1447
優惠	-1448
立即	-1449
不少	-1450
集團	-1451
港女	-1452
既然	-1453
接觸	-1454
先得	-1455
琴日	-1456
▁只係	-1457
真係好撚	-1458
佢老母	-1459
歐聯	-1460
緊急	-1461
幾個月	-1462
▁都係	-1463
同意	-1464
黃色	-1465
作出	-1466
係唔	-1467
中的	-1468
只能	-1469
7"	-1470
訓練	-1471
an	-1472
就唔好	-1473
如此	-1474
屬於	-1475
返屋企	-1476
8"	-1477
住佢	-1478
64	-1479
她的	-1480
角度	-1481
俾我	-1482
很多	-1483
作用	-1484
現時	-1485
敵人	-1486
報導	-1487
關心	-1488
付出	-1489
你會	-1490
」、	-1491
無乜	-1492
多個	-1493
3"	-1494
針對	-1495
幾十	-1496
哈哈	-1497
進步	-1498
我真係	-1499
想像	-1500
過嚟	-1501
得閒	-1502
1"	-1503
你可以	-1504
▁講真	-1505
▁見	-1506
造成	-1507
感受	-1508
必要	-1509
承認	-1510
亞洲	-1511
都已經	-1512
公平	-1513
資訊	-1514
熱狗	-1515
咗膠	-1516
例子	-1517
喜歡	-1518
係個	-1519
55	-1520
整個	-1521
▁自	-1522
畀人	-1523
機構	-1524
病毒	-1525
地下	-1526
邊有	-1527
聲明	-1528
信心	-1529
的時候	-1530
傳媒	-1531
兩次	-1532
下午	-1533
總之	-1534
大陸人	-1535
消防	-1536
▁早	-1537
強調	-1538
話你	-1539
▁這	-1540
▁天	-1541
百萬	-1542
有限	-1543
將來	-1544
就咁	-1545
疫情	-1546
武漢	-1547
港獨	-1548
導致	-1549
都想	-1550
都叫	-1551
普選	-1552
注意	-1553
▁第	-1554
遇到	-1555
我都係	-1556
好少	-1557
又點	-1558
36	-1559
製造	-1560
球迷	-1561
唔掂	-1562
都唔識	-1563
黨鐵	-1564
冷氣	-1565
時期	-1566
直播	-1567
對家	-1568
幫助	-1569
㗎啦	-1570
心情	-1571
透過	-1572
問題係	-1573
再次	-1574
當地	-1575
戰爭	-1576
話係	-1577
咗一	-1578
有用	-1579
企業	-1580
大概	-1581
反抗	-1582
生日	-1583
持續	-1584
中場	-1585
消失	-1586
強姦	-1587
限制	-1588
公佈	-1589
%,	-1590
仲可以	-1591
唔開心	-1592
那麼	-1593
個頭	-1594
緊張	-1595
........	-1596
網絡	-1597
背後	-1598
發覺	-1599
同我講	-1600
今天	-1601
互相	-1602
於是	-1603
......」	-1604
法庭	-1605
廁所	-1606
佢會	-1607
國民	-1608
你都	-1609
義士	-1610
上到	-1611
報道	-1612
先知	-1613
受傷	-1614
唔關	-1615
呢隻	-1616
只可以	-1617
港豬	-1618
師兄	-1619
個時	-1620
係一	-1621
我嘅	-1622
已經有	-1623
生存	-1624
澳洲	-1625
速度	-1626
無限	-1627
道歉	-1628
意外	-1629
暴動	-1630
勢力	-1631
訪問	-1632
港島	-1633
將會	-1634
咪得	-1635
後悔	-1636
癡撚	-1637
分分鐘	-1638
。。。。	-1639
嘅一	-1640
唔應該	-1641
我好	-1642
聖誕	-1643
擁有	-1644
犯法	-1645
佢話	-1646
老人	-1647
不到	-1648
估唔到	-1649
還有	-1650
你覺得	-1651
▁我都係	-1652
特首	-1653
港鐵	-1654
唔係好	-1655
出事	-1656
▁想問吓	-1657
出到	-1658
來的	-1659
咪撚	-1660
金融	-1661
隊友	-1662
打機	-1663
維持	-1664
▁放	-1665
要做	-1666
保安	-1667
接近	-1668
邏輯	-1669
法官	-1670
▁黃	-1671
減少	-1672
有效	-1673
愛國	-1674
▁第一	-1675
問我	-1676
任務	-1677
沙田	-1678
觀眾	-1679
階段	-1680
紀錄	-1681
數字	-1682
否則	-1683
▁搵	-1684
好睇	-1685
不得	-1686
4"	-1687
嘅一個	-1688
即時	-1689
小姐	-1690
大約	-1691
我自己	-1692
輕鬆	-1693
▁陳	-1694
範圍	-1695
▁條	-1696
▁馬	-1697
▁日本	-1698
權力	-1699
聽過	-1700
9"	-1701
決賽	-1702
癡撚線	-1703
建立	-1704
獲得	-1705
巴絲	-1706
特登	-1707
下面	-1708
)」	-1709
老細	-1710
去年	-1711
唱歌	-1712
公民	-1713
中大	-1714
你又	-1715
▁反而	-1716
買到	-1717
一刻	-1718
近平	-1719
姐係	-1720
咁快	-1721
區議會	-1722
一人	-1723
而唔係	-1724
瘋狂	-1725
撚死	-1726
地球	-1727
上年	-1728
光復	-1729
的士	-1730
2000	-1731
奇怪	-1732
衝突	-1733
水平	-1734
形容	-1735
-0	-1736
架車	-1737
印象	-1738
打飛機	-1739
都唔好	-1740
份工	-1741
師傅	-1742
路線	-1743
邊到	-1744
之下	-1745
大家都	-1746
防守	-1747
想問	-1748
大訴求	-1749
聯絡	-1750
有心	-1751
開放	-1752
理論	-1753
適合	-1754
但是	-1755
職業	-1756
只不過	-1757
唔理	-1758
玻璃	-1759
▁高	-1760
之類	-1761
75	-1762
應該要	-1763
應該會	-1764
幸福	-1765
大的	-1766
得多	-1767
照顧	-1768
梗係	-1769
支共	-1770
升級	-1771
加拿	-1772
美斯	-1773
每個	-1774
傳統	-1775
保險	-1776
部門	-1777
私人	-1778
不足	-1779
唯有	-1780
返到	-1781
唔做	-1782
地點	-1783
柒頭	-1784
又可以	-1785
類似	-1786
威脅	-1787
以為自己	-1788
魔法	-1789
住個	-1790
仔女	-1791
一段	-1792
叫做	-1793
媽媽	-1794
肺炎	-1795
▁已經	-1796
荃灣	-1797
▁到時	-1798
似乎	-1799
用咗	-1800
出世	-1801
官方	-1802
你咁	-1803
西方	-1804
佢就	-1805
十二	-1806
幫我	-1807
曼聯	-1808
玩家	-1809
隻手	-1810
廣州	-1811
會議	-1812
」、「	-1813
文件	-1814
而係	-1815
大部份	-1816
歌手	-1817
▁19	-1818
人講	-1819
配合	-1820
娛樂	-1821
奶共	-1822
搵唔到	-1823
得唔得	-1824
好彩	-1825
唔需要	-1826
▁以	-1827
直頭	-1828
羅斯	-1829
一張	-1830
十分	-1831
非法	-1832
變得	-1833
都唔撚	-1834
la	-1835
阻止	-1836
嚟緊	-1837
後來	-1838
加拿大	-1839
過佢	-1840
星期六	-1841
去睇	-1842
其中一個	-1843
解放	-1844
高層	-1845
▁淨係	-1846
2,	-1847
48	-1848
▁但我	-1849
隻狗	-1850
法案	-1851
參考	-1852
老公	-1853
食物	-1854
公務	-1855
呢條	-1856
屎忽	-1857
萬元	-1858
咁多年	-1859
單車	-1860
知識	-1861
作品	-1862
可能係	-1863
打咗	-1864
居民	-1865
▁政府	-1866
夠膽	-1867
東西	-1868
正確	-1869
職員	-1870
0.	-1871
怎麼	-1872
戰線	-1873
漫畫	-1874
覺得佢	-1875
▁當年	-1876
認識	-1877
背景	-1878
好易	-1879
官員	-1880
路人	-1881
少女	-1882
話自己	-1883
睇佢	-1884
冇咗	-1885
首歌	-1886
交易	-1887
醫療	-1888
香港的	-1889
▁咩	-1890
廣東話	-1891
演員	-1892
》,	-1893
個女	-1894
地位	-1895
搞掂	-1896
尋日	-1897
▁唉	-1898
期待	-1899
當日	-1900
無啦啦	-1901
唔代表	-1902
質疑	-1903
藍屍	-1904
點解唔	-1905
150	-1906
▁或者	-1907
深圳	-1908
動畫	-1909
講吓	-1910
▁玩	-1911
都唔想	-1912
答案	-1913
100%	-1914
如果唔係	-1915
全面	-1916
醫護	-1917
▁只要	-1918
支援	-1919
講咩	-1920
打手	-1921
▁二	-1922
搵人	-1923
資產	-1924
個案	-1925
樓豬	-1926
挑戰	-1927
最重要	-1928
登記	-1929
46	-1930
2018	-1931
完美	-1932
係冇	-1933
第一個	-1934
產品	-1935
預咗	-1936
返個	-1937
當初	-1938
更好	-1939
溝通	-1940
成績	-1941
老味	-1942
要有	-1943
▁會唔會	-1944
入場	-1945
保障	-1946
除了	-1947
發出	-1948
少咗	-1949
人有	-1950
就係咁	-1951
可是	-1952
建築	-1953
太陽	-1954
唔見	-1955
英雄	-1956
習近平	-1957
講嘅	-1958
美元	-1959
司法	-1960
全港	-1961
忘記	-1962
案件	-1963
▁巖巖	-1964
球會	-1965
出名	-1966
400	-1967
嗰時	-1968
警隊	-1969
▁8	-1970
佢都	-1971
一些	-1972
點睇	-1973
武力	-1974
幾百	-1975
理性	-1976
▁會	-1977
風向	-1978
將軍	-1979
合法	-1980
如果你	-1981
報警	-1982
雙方	-1983
看著	-1984
到而家	-1985
分開	-1986
所有人	-1987
話唔	-1988
:0	-1989
下來	-1990
/2019	-1991
世紀	-1992
做好	-1993
出手	-1994
經常	-1995
▁點知	-1996
覺得好	-1997
公務員	-1998
▁李	-1999
紅色	-2000
自我	-2001
快樂	-2002
唔順	-2003
就好似	-2004
到了	-2005
果班	-2006
▁第二	-2007
做法	-2008
幾乎	-2009
無野	-2010
咗我	-2011
嘅感覺	-2012
兩邊	-2013
打得	-2014
拘捕	-2015
一開	-2016
▁平時	-2017
民主派	-2018
幫襯	-2019
出口	-2020
事務	-2021
五大訴求	-2022
基金	-2023
藉口	-2024
愛情	-2025
▁唔通	-2026
反映	-2027
戰術	-2028
係想	-2029
打完	-2030
對住	-2031
唔錯	-2032
▁其他	-2033
犧牲	-2034
千萬	-2035
爆發	-2036
製作	-2037
進攻	-2038
依然	-2039
已經好	-2040
▁跟住	-2041
期望	-2042
口號	-2043
對我	-2044
無事	-2045
黑色	-2046
樓上	-2047
睇你	-2048
產生	-2049
技能	-2050
係大	-2051
法治	-2052
以來	-2053
諗到	-2054
落地	-2055
▁4.	-2056
隊長	-2057
退休	-2058
▁死	-2059
38	-2060
廣場	-2061
咁你	-2062
全部都係	-2063
電子	-2064
▁西	-2065
入境	-2066
▁都	-2067
股票	-2068
去邊	-2069
諗緊	-2070
吓吓	-2071
概念	-2072
收工	-2073
65	-2074
年紀	-2075
香港嘅	-2076
實在	-2077
情況吓	-2078
中環	-2079
受害	-2080
▁宜家	-2081
樓下	-2082
相反	-2083
工具	-2084
定義	-2085
欣賞	-2086
打開	-2087
執行	-2088
女子	-2089
輸咗	-2090
頭髮	-2091
▁多謝	-2092
咁易	-2093
享受	-2094
白色	-2095
:30	-2096
歧視	-2097
食咗	-2098
3.	-2099
最少	-2100
全民	-2101
發表	-2102
‧‧	-2103
對話	-2104
睇咗	-2105
搵個	-2106
ar	-2107
最緊要	-2108
足夠	-2109
▁連登	-2110
超級	-2111
可以用	-2112
都不	-2113
▁如果你	-2114
▁問	-2115
一位	-2116
明知	-2117
避免	-2118
新手	-2119
共和	-2120
買樓	-2121
共同	-2122
單野	-2123
唔要	-2124
發言	-2125
到個	-2126
係會	-2127
不滿	-2128
因素	-2129
之中	-2130
舉行	-2131
一班	-2132
幻想	-2133
平臺	-2134
打壓	-2135
男女	-2136
真係會	-2137
執法	-2138
隊波	-2139
樓價	-2140
手段	-2141
朝早	-2142
要用	-2143
▁12	-2144
海外	-2145
下去	-2146
出發	-2147
39	-2148
望住	-2149
老豆老母	-2150
開花	-2151
呼籲	-2152
▁美	-2153
▁上次	-2154
鬼佬	-2155
然而	-2156
有點	-2157
撚曬	-2158
▁張	-2159
~~	-2160
求其	-2161
唔去	-2162
擺明	-2163
想做	-2164
咁就	-2165
阿媽	-2166
同一個	-2167
咗你	-2168
主持	-2169
唔用	-2170
47	-2171
盡量	-2172
唔信	-2173
那個	-2174
嘗試	-2175
加坡	-2176
▁0	-2177
等佢	-2178
部機	-2179
有冇人	-2180
但又	-2181
模式	-2182
鏡頭	-2183
滿足	-2184
人物	-2185
俄羅斯	-2186
唔太	-2187
發夢	-2188
▁聽日	-2189
)、	-2190
回事	-2191
班牙	-2192
嘅手足	-2193
黑人	-2194
建制派	-2195
本人	-2196
49	-2197
一時	-2198
66	-2199
極權	-2200
靚女	-2201
系列	-2202
一堆	-2203
入波	-2204
爸爸	-2205
年後	-2206
玩到	-2207
其實係	-2208
▁果	-2209
違反	-2210
樣野	-2211
學習	-2212
。「	-2213
生物	-2214
團結	-2215
en	-2216
高登	-2217
排隊	-2218
一份	-2219
裡面	-2220
權利	-2221
引起	-2222
乜嘢	-2223
▁佢哋	-2224
年年	-2225
見佢	-2226
痛苦	-2227
比錢	-2228
那些	-2229
條片	-2230
點做	-2231
外交	-2232
▁今晚	-2233
裝備	-2234
反送中	-2235
傻仔	-2236
的大	-2237
但佢	-2238
▁過	-2239
選民	-2240
協助	-2241
第二個	-2242
主場	-2243
主任	-2244
宗教	-2245
措施	-2246
假設	-2247
真相	-2248
先至	-2249
▁真心	-2250
喺香港	-2251
中咗	-2252
灣區	-2253
就嚟	-2254
專家	-2255
藝人	-2256
▁有人	-2257
暴徒	-2258
睇返	-2259
點算	-2260
來自	-2261
有咩分別	-2262
乜乜	-2263
()	-2264
想點	-2265
都應該	-2266
能量	-2267
一國	-2268
曱甴	-2269
最尾	-2270
心諗	-2271
為何	-2272
啲野	-2273
女神	-2274
突破	-2275
戰鬥	-2276
無咗	-2277
馬路	-2278
緊係	-2279
地產	-2280
民主黨	-2281
相對	-2282
銅鑼	-2283
失望	-2284
唔再	-2285
會好	-2286
2021	-2287
在這	-2288
69	-2289
商業	-2290
街坊	-2291
裁判	-2292
青年	-2293
新界	-2294
開咗	-2295
條仔	-2296
過你	-2297
龍門	-2298
結束	-2299
老實	-2300
後備	-2301
回憶	-2302
協議	-2303
星期日	-2304
**	-2305
影相	-2306
都唔洗	-2307
少年	-2308
銅鑼灣	-2309
呢句	-2310
現代	-2311
時今日	-2312
直到	-2313
佢自己	-2314
反擊	-2315
▁臺灣	-2316
▁叫	-2317
太大	-2318
同你講	-2319
要人	-2320
琴晚	-2321
提升	-2322
出席	-2323
評論	-2324
亦有	-2325
後果	-2326
表演	-2327
都只係	-2328
37	-2329
東京	-2330
睇住	-2331
結局	-2332
▁除非	-2333
校長	-2334
想講	-2335
同佢講	-2336
網民	-2337
家長	-2338
學院	-2339
這麼	-2340
係最	-2341
到大	-2342
多年	-2343
▁連登仔	-2344
▁唔會	-2345
正在	-2346
係自己	-2347
轉咗	-2348
幾千	-2349
點點	-2350
皇馬	-2351
感染	-2352
下年	-2353
黑社會	-2354
南亞	-2355
都未必	-2356
名單	-2357
▁支那	-2358
花園	-2359
公會	-2360
啲嘢	-2361
大會	-2362
▁正常	-2363
兩三	-2364
▁事實	-2365
好人	-2366
到人	-2367
做嘢	-2368
諗法	-2369
並非	-2370
課金	-2371
係真	-2372
都咁	-2373
算唔算	-2374
)-	-2375
得你	-2376
連續	-2377
乜野	-2378
原則	-2379
回歸	-2380
而是	-2381
戶口	-2382
可以做	-2383
基本法	-2384
得過	-2385
冇事	-2386
勝利	-2387
涉及	-2388
唔過	-2389
對佢	-2390
食屎	-2391
贏咗	-2392
▁至於	-2393
比例	-2394
家姐	-2395
唔啱	-2396
並不	-2397
各種	-2398
觀塘	-2399
鼓勵	-2400
內部	-2401
▁個個	-2402
上嘅	-2403
▁她	-2404
感謝	-2405
▁啱啱	-2406
理想	-2407
主題	-2408
呢場	-2409
奧運	-2410
唔比	-2411
呢班	-2412
生產	-2413
架喎	-2414
600	-2415
相當	-2416
有少少	-2417
有咩問題	-2418
每年	-2419
未能	-2420
得佢	-2421
日後	-2422
停止	-2423
關於	-2424
藝術	-2425
你好	-2426
問佢	-2427
全國	-2428
嘅就	-2429
▁收	-2430
球場	-2431
體育	-2432
▁白	-2433
▁近	-2434
姐姐	-2435
演唱	-2436
先再	-2437
我不	-2438
▁識	-2439
2017	-2440
一件	-2441
特區	-2442
有一個	-2443
3,	-2444
賺錢	-2445
可愛	-2446
對抗	-2447
賤種	-2448
去過	-2449
自私	-2450
我們的	-2451
▁如果唔係	-2452
▁今年	-2453
唔肯	-2454
▁是	-2455
民國	-2456
一百	-2457
雙手	-2458
工會	-2459
講得	-2460
領導	-2461
氣氛	-2462
1/	-2463
都唔夠	-2464
業主	-2465
慶祝	-2466
發揮	-2467
▁留	-2468
我又	-2469
掛住	-2470
冷靜	-2471
多幾	-2472
中嘅	-2473
旅遊	-2474
心機	-2475
▁C	-2476
玩法	-2477
今季	-2478
環保	-2479
乜都	-2480
97	-2481
太子	-2482
兩個月	-2483
越嚟	-2484
比人屌	-2485
透露	-2486
走到	-2487
人會	-2488
▁上面	-2489
感動	-2490
無用	-2491
平衡	-2492
▁S	-2493
世界盃	-2494
二十	-2495
點解會	-2496
▁完全	-2497
真係唔	-2498
架喇	-2499
做人	-2500
▁有無人	-2501
佢啦	-2502
越嚟越	-2503
逃犯	-2504
好多野	-2505
黃絲	-2506
臭閪	-2507
唔中	-2508
▁俾	-2509
老鼠	-2510
強烈	-2511
利亞	-2512
女友	-2513
▁可唔可以	-2514
細佬	-2515
打擊	-2516
番嚟	-2517
三十	-2518
正選	-2519
放工	-2520
年輕人	-2521
關鍵	-2522
部隊	-2523
傻閪	-2524
67	-2525
團體	-2526
資金	-2527
收皮啦	-2528
追求	-2529
嘅大	-2530
相處	-2531
標題	-2532
都好似	-2533
平安	-2534
層樓	-2535
唔入	-2536
▁隻	-2537
成年	-2538
天下	-2539
大聲	-2540
熱門	-2541
唔會有	-2542
好唔好	-2543
回到	-2544
宇宙	-2545
1-	-2546
入球	-2547
解放軍	-2548
行業	-2549
食完	-2550
大波	-2551
西班牙	-2552
好正	-2553
交流	-2554
上水	-2555
最新	-2556
成長	-2557
星期一	-2558
44	-2559
最低	-2560
32	-2561
2016	-2562
車站	-2563
因為我	-2564
合約	-2565
難以	-2566
區議員	-2567
到尾	-2568
過來	-2569
小說	-2570
晚上	-2571
孩子	-2572
馬上	-2573
手術	-2574
尖沙	-2575
▁咁樣	-2576
中堅	-2577
聯署	-2578
一套	-2579
襲擊	-2580
教授	-2581
到自己	-2582
得起	-2583
佢講	-2584
最佳	-2585
生仔	-2586
好笑	-2587
做錯	-2588
民陣	-2589
經濟圈	-2590
▁覺得	-2591
程序	-2592
蒙面	-2593
就已經	-2594
入唔到	-2595
大廈	-2596
唔鍾意	-2597
信用	-2598
上海	-2599
高級	-2600
搞笑	-2601
母親	-2602
得太	-2603
800	-2604
病人	-2605
強國	-2606
團隊	-2607
飲食	-2608
禁止	-2609
咗好耐	-2610
▁好撚	-2611
好嘅	-2612
當你	-2613
冇用	-2614
事情	-2615
早前	-2616
推介	-2617
▁成班	-2618
乜撚野	-2619
▁有咩	-2620
你估	-2621
指定	-2622
▁學	-2623
▁行	-2624
▁其實我	-2625
▁例如	-2626
天氣	-2627
仲會	-2628
怪得	-2629
▁結果	-2630
冇問題	-2631
來越	-2632
。(	-2633
兩句	-2634
▁唔洗	-2635
珍惜	-2636
等到	-2637
洗唔洗	-2638
下場	-2639
睇嚇	-2640
屌鳩	-2641
就夠	-2642
少數	-2643
他們的	-2644
兩制	-2645
進化	-2646
都唔敢	-2647
上車	-2648
文字	-2649
兩人	-2650
競爭	-2651
之後就	-2652
左邊	-2653
大埔	-2654
條路	-2655
地上	-2656
▁邊個	-2657
樣衰	-2658
估計	-2659
觀察	-2660
拎嚟	-2661
非洲	-2662
呢套	-2663
▁如果係	-2664
錯誤	-2665
越來越	-2666
▁好彩	-2667
作者	-2668
後生仔	-2669
呢樣野	-2670
成熟	-2671
咗先	-2672
72	-2673
一定有	-2674
間公司	-2675
▁笑	-2676
▁支持	-2677
好心	-2678
民眾	-2679
左手	-2680
記憶	-2681
我無	-2682
考試	-2683
規模	-2684
警告	-2685
金鐘	-2686
公共	-2687
尷尬	-2688
至今	-2689
規定	-2690
自己人	-2691
大嘅	-2692
當局	-2693
治療	-2694
會點	-2695
連儂	-2696
700	-2697
你係咪	-2698
▁一係	-2699
吓個	-2700
爆炸	-2701
空氣	-2702
不用	-2703
?!	-2704
自信	-2705
我已經	-2706
眼前	-2707
▁究竟	-2708
修例	-2709
判斷	-2710
差佬	-2711
可以係	-2712
集合	-2713
出場	-2714
對象	-2715
拎到	-2716
▁我們	-2717
百幾	-2718
在香港	-2719
動力	-2720
帝國	-2721
大灣區	-2722
加強	-2723
軍事	-2724
咁我	-2725
邊隻	-2726
得個	-2727
事後	-2728
果隻	-2729
▁11	-2730
理大	-2731
收咗	-2732
優勢	-2733
東方	-2734
巴塞	-2735
明星	-2736
核心	-2737
▁次次	-2738
想法	-2739
講句	-2740
提醒	-2741
變化	-2742
番工	-2743
運作	-2744
尋晚	-2745
屋嶺	-2746
國歌	-2747
中立	-2748
分裂	-2749
來說	-2750
日文	-2751
有事	-2752
無問題	-2753
食過	-2754
係屋企	-2755
現金	-2756
護照	-2757
何況	-2758
上咗	-2759
唔知點解	-2760
達到	-2761
嗰度	-2762
交代	-2763
供應	-2764
社區	-2765
進一步	-2766
大臺	-2767
同個	-2768
日常	-2769
清潔	-2770
每個人	-2771
大型	-2772
灣仔	-2773
好多時	-2774
▁港	-2775
得住	-2776
預計	-2777
▁通常	-2778
點都	-2779
咁高	-2780
唔開	-2781
催淚	-2782
記錄	-2783
▁如	-2784
藍店	-2785
:$	-2786
個班	-2787
唔上	-2788
皮膚	-2789
傻鳩	-2790
土地	-2791
淨係識	-2792
「"」	-2793
日報	-2794
果種	-2795
搵佢	-2796
經理	-2797
賽事	-2798
取得	-2799
▁加	-2800
表態	-2801
凌晨	-2802
會係	-2803
埋去	-2804
都有人	-2805
先好	-2806
區選	-2807
頂唔順	-2808
想睇	-2809
正義	-2810
你去	-2811
～～	-2812
用咩	-2813
項目	-2814
到好	-2815
埋啲	-2816
比起	-2817
美金	-2818
麻麻	-2819
文章	-2820
大把人	-2821
手指	-2822
今場	-2823
▁我自己	-2824
忍唔住	-2825
承諾	-2826
防暴	-2827
講真	-2828
組合	-2829
公里	-2830
特朗	-2831
▁大陸	-2832
符合	-2833
以外	-2834
用緊	-2835
正面	-2836
工人	-2837
▁首先	-2838
有多	-2839
都唔得	-2840
呢到	-2841
▁林	-2842
親戚	-2843
邊間	-2844
屌人	-2845
唔食	-2846
6.	-2847
不多	-2848
咩都	-2849
唔覺	-2850
講嘢	-2851
▁十	-2852
▁中共	-2853
真實	-2854
表情	-2855
演唱會	-2856
▁日日	-2857
私家	-2858
吹奏	-2859
我個	-2860
黃金	-2861
滿意	-2862
睇嚟	-2863
文明	-2864
es	-2865
兩個人	-2866
for	-2867
▁請問	-2868
到去	-2869
大戰	-2870
▁去到	-2871
埋一齊	-2872
▁認真	-2873
啲錢	-2874
泰國	-2875
華為	-2876
▁我哋	-2877
統治	-2878
=3	-2879
打工	-2880
學歷	-2881
劇本	-2882
敏感	-2883
係咪要	-2884
形象	-2885
95	-2886
▁乜	-2887
人同	-2888
俾錢	-2889
搵錢	-2890
我冇	-2891
尖沙咀	-2892
前鋒	-2893
羅馬	-2894
呼吸	-2895
三年	-2896
福利	-2897
你睇	-2898
上連登	-2899
主線	-2900
深水	-2901
全力	-2902
班友	-2903
淘寶	-2904
大利	-2905
見到佢	-2906
嘅時間	-2907
月娥	-2908
大力	-2909
策略	-2910
係可以	-2911
▁睇嚟	-2912
亦都	-2913
接種	-2914
檢查	-2915
勇氣	-2916
新加坡	-2917
係日本	-2918
特朗普	-2919
4.	-2920
一生	-2921
都識	-2922
依加	-2923
真係無	-2924
▁反正	-2925
父親	-2926
男友	-2927
5000	-2928
輸出	-2929
呢類	-2930
六四	-2931
▁記得	-2932
就去	-2933
表面	-2934
▁啱	-2935
算係	-2936
所以我	-2937
法例	-2938
都係要	-2939
整體	-2940
批鬥	-2941
戴口罩	-2942
幾錢	-2943
內心	-2944
新屋嶺	-2945
完咗	-2946
一粒	-2947
▁應該係	-2948
分子	-2949
放低	-2950
子彈	-2951
過我	-2952
▁最近	-2953
新疆	-2954
="3	-2955
地獄	-2956
外國人	-2957
版本	-2958
話題	-2959
上升	-2960
▁金	-2961
2-	-2962
水圍	-2963
年齡	-2964
社交	-2965
▁有啲	-2966
選人	-2967
▁入	-2968
妹妹	-2969
▁為	-2970
唔切	-2971
兒子	-2972
難度	-2973
唔會再	-2974
傾計	-2975
軍隊	-2976
自治	-2977
▁個人	-2978
去旅行	-2979
打人	-2980
救護	-2981
嘅情況	-2982
地盤	-2983
▁重	-2984
另一半	-2985
7.	-2986
唔買	-2987
都夠	-2988
▁仆街	-2989
開槍	-2990
週年	-2991
可憐	-2992
呢件事	-2993
▁四	-2994
好食	-2995
唔睇	-2996
係中國	-2997
▁所以我	-2998
修訂	-2999
,000	-3000
想買	-3001
資本	-3002
手上	-3003
聯盟	-3004
用到	-3005
嫁啦	-3006
68	-3007
係邊	-3008
都會有	-3009
正正	-3010
如果有	-3011
佢同	-3012
最後一	-3013
確定	-3014
打針	-3015
改革	-3016
普通話	-3017
手法	-3018
轉移	-3019
華人	-3020
▁起碼	-3021
張相	-3022
▁咁我	-3023
基礎	-3024
也有	-3025
就唔係	-3026
狀況	-3027
咗去	-3028
普遍	-3029
達通	-3030
用嘅	-3031
貢獻	-3032
眼中	-3033
確認	-3034
危機	-3035
同路人	-3036
各自	-3037
嚟嘅	-3038
困難	-3039
mu	-3040
佢又	-3041
良心	-3042
▁定	-3043
冇咁	-3044
譴責	-3045
遲早	-3046
佢真係	-3047
確保	-3048
▁睇吓	-3049
告訴	-3050
複雜	-3051
矛盾	-3052
咗幾	-3053
!!!!!!!!	-3054
▁係呀	-3055
果邊	-3056
▁黑	-3057
第四	-3058
將軍澳	-3059
吹水	-3060
比個	-3061
回家	-3062
昨日	-3063
一聲	-3064
價值觀	-3065
局長	-3066
食到	-3067
都講	-3068
眼鏡	-3069
抗爭者	-3070
大多數	-3071
為止	-3072
入口	-3073
人人	-3074
規則	-3075
玩完	-3076
毫無	-3077
套戲	-3078
一向	-3079
▁牙	-3080
嘅方法	-3081
612	-3082
,5	-3083
衝擊	-3084
少人	-3085
▁多	-3086
公仔	-3087
國會	-3088
係唔會	-3089
▁所有	-3090
▁建議	-3091
負皮	-3092
犯罪	-3093
贏到	-3094
都係得	-3095
港元	-3096
▁試過	-3097
▁女	-3098
佢地嘅	-3099
取代	-3100
好遠	-3101
▁將	-3102
近年	-3103
但你	-3104
▁我有	-3105
設定	-3106
好過啦	-3107
上一	-3108
本港	-3109
刑事	-3110
▁成個	-3111
話人	-3112
嘅朋友	-3113
幾年前	-3114
因為佢	-3115
禮物	-3116
令我	-3117
好驚	-3118
深水埗	-3119
守護	-3120
▁無論	-3121
事主	-3122
嗰種	-3123
調整	-3124
係用	-3125
落車	-3126
抽到	-3127
▁睇完	-3128
居屋	-3129
把聲	-3130
架咩	-3131
馬會	-3132
▁終於	-3133
放心	-3134
主流	-3135
牌子	-3136
段時間	-3137
護士	-3138
航空	-3139
新年	-3140
831	-3141
好像	-3142
兩場	-3143
測試	-3144
的地方	-3145
講啦	-3146
死全家	-3147
對你	-3148
理據	-3149
導演	-3150
其後	-3151
佢啲	-3152
強制	-3153
原諒	-3154
推出	-3155
完全冇	-3156
地圖	-3157
場場	-3158
收錢	-3159
眾籌	-3160
大人	-3161
哥哥	-3162
身分	-3163
共和國	-3164
3000	-3165
▁此	-3166
藍色	-3167
▁你話	-3168
▁難	-3169
咖啡	-3170
就一定	-3171
巴西	-3172
確診	-3173
主人	-3174
維護	-3175
盡快	-3176
有份	-3177
中美	-3178
如果係	-3179
基於	-3180
屌佢	-3181
光復香港	-3182
記者會	-3183
集結	-3184
否認	-3185
林鄭月娥	-3186
臨時	-3187
仙奴	-3188
▁基本上	-3189
▁諗	-3190
形式	-3191
知你	-3192
一家	-3193
傷心	-3194
▁先	-3195
__	-3196
實驗	-3197
方案	-3198
好唔	-3199
唔好咁	-3200
思維	-3201
證實	-3202
冇可能	-3203
呢排	-3204
獨裁	-3205
▁據	-3206
年嘅	-3207
心中	-3208
八達通	-3209
有些	-3210
信任	-3211
停車	-3212
大師	-3213
得嚟	-3214
唔俾	-3215
後期	-3216
基督	-3217
▁水	-3218
花生	-3219
國內	-3220
完全無	-3221
都冇用	-3222
->	-3223
有可能	-3224
玩吓	-3225
好的	-3226
唔似	-3227
禮貌	-3228
不知道	-3229
對唔住	-3230
千幾	-3231
建聯	-3232
工業	-3233
乘客	-3234
打死	-3235
是在	-3236
上位	-3237
對比	-3238
呀嘛	-3239
並且	-3240
封鎖	-3241
都一樣	-3242
功課	-3243
創造	-3244
黑暗	-3245
一星期	-3246
轉會	-3247
一手	-3248
問你	-3249
一國兩制	-3250
▁太	-3251
▁每次	-3252
唔巖	-3253
▁只	-3254
決心	-3255
相同	-3256
直至	-3257
3-	-3258
▁跟	-3259
▁求	-3260
▁但佢	-3261
可以點	-3262
是一個	-3263
遲啲	-3264
人大	-3265
民建聯	-3266
開頭	-3267
損失	-3268
住我	-3269
你咪	-3270
就走	-3271
講完	-3272
死者	-3273
幫到	-3274
才能	-3275
他人	-3276
!!!	-3277
發起	-3278
mula	-3279
紀念	-3280
懲罰	-3281
數量	-3282
都比	-3283
脾氣	-3284
委會	-3285
中資	-3286
▁總之	-3287
風格	-3288
拍攝	-3289
肌肉	-3290
咩人	-3291
物資	-3292
黃色經濟圈	-3293
失業	-3294
逃犯條例	-3295
種族	-3296
意圖	-3297
呢個世界	-3298
達成	-3299
刺激	-3300
失蹤	-3301
▁邊	-3302
撚事	-3303
皇帝	-3304
知佢	-3305
formula	-3306
越南	-3307
返佢	-3308
59	-3309
一排	-3310
都唔明	-3311
大隻	-3312
唔計	-3313
智慧	-3314
唔係話	-3315
都仲係	-3316
▁明	-3317
等緊	-3318
埋佢	-3319
%。	-3320
▁好想	-3321
大個	-3322
過到	-3323
▁老實	-3324
確實	-3325
今時今日	-3326
嗰邊	-3327
大眾	-3328
因爲	-3329
建設	-3330
嘅機會	-3331
好勁	-3332
說服	-3333
係同	-3334
億元	-3335
房間	-3336
120	-3337
公安	-3338
平民	-3339
維園	-3340
把口	-3341
5"	-3342
係指	-3343
咁都	-3344
▁拎	-3345
曬啲	-3346
推薦	-3347
幾多人	-3348
重視	-3349
▁你要	-3350
機械	-3351
你做	-3352
張圖	-3353
老人家	-3354
詳細	-3355
▁搞	-3356
睇下	-3357
廚房	-3358
積極	-3359
網站	-3360
購買	-3361
個種	-3362
▁頭先	-3363
早餐	-3364
2014	-3365
想到	-3366
排名	-3367
順便	-3368
條命	-3369
仲話	-3370
的問題	-3371
出一	-3372
咗啲	-3373
乾淨	-3374
返啲	-3375
▁各位	-3376
美帝	-3377
得罪	-3378
影片	-3379
搵食	-3380
見你	-3381
眼神	-3382
聲稱	-3383
▁下次	-3384
佢做	-3385
恢復	-3386
就應該	-3387
到最後	-3388
無可能	-3389
大話	-3390
市鎮	-3391
有興趣	-3392
▁2019	-3393
出過	-3394
嚟香港	-3395
全身	-3396
國民黨	-3397
al	-3398
在我	-3399
一帶	-3400
▁我就	-3401
為什麼	-3402
放假	-3403
爭議	-3404
肥仔	-3405
係法國	-3406
愛你	-3407
唔同嘅	-3408
日本人	-3409
得一	-3410
自身	-3411
▁到底	-3412
為主	-3413
▁唔想	-3414
統一	-3415
▁日	-3416
駕駛	-3417
咩叫	-3418
突發	-3419
離婚	-3420
勁過	-3421
唔止	-3422
保證	-3423
也沒有	-3424
上街	-3425
依啲	-3426
回答	-3427
撚哂	-3428
補充	-3429
畢竟	-3430
意大利	-3431
野食	-3432
公義	-3433
要去	-3434
解鎖	-3435
各有	-3436
充滿	-3437
二手	-3438
國家安全	-3439
其餘	-3440
達哥	-3441
十八	-3442
▁英國	-3443
怎樣	-3444
唔返	-3445
關稅	-3446
報紙	-3447
到依家	-3448
警犬	-3449
頂住	-3450
自己一個	-3451
▁從	-3452
這裡	-3453
十萬	-3454
啦屌	-3455
▁幾	-3456
運動員	-3457
結論	-3458
向前	-3459
嗰班	-3460
79	-3461
殖民	-3462
設施	-3463
總會	-3464
行人	-3465
乜鳩	-3466
天使	-3467
條街	-3468
加速	-3469
參選	-3470
意志	-3471
前往	-3472
▁條友	-3473
我同	-3474
星期五	-3475
在場	-3476
個波	-3477
▁東	-3478
小學雞	-3479
▁黑警	-3480
個心	-3481
不再	-3482
個隻	-3483
83	-3484
收埋	-3485
實施	-3486
大學生	-3487
討論區	-3488
回報	-3489
公主	-3490
高度	-3491
個女仔	-3492
▁本	-3493
留低	-3494
西亞	-3495
計算	-3496
連儂牆	-3497
我是	-3498
▁18	-3499
人民幣	-3500
北韓	-3501
仲唔	-3502
▁定係	-3503
催淚彈	-3504
曼城	-3505
1.5	-3506
真人	-3507
香港政府	-3508
鐵路	-3509
開波	-3510
搞事	-3511
你唔係	-3512
似係	-3513
偶像	-3514
吓一	-3515
誇張	-3516
極端	-3517
提到	-3518
圈子	-3519
他說	-3520
負面	-3521
▁垃圾	-3522
等人	-3523
▁換	-3524
咗成	-3525
▁你估	-3526
好明顯	-3527
中國的	-3528
安心	-3529
班仆街	-3530
推動	-3531
升到	-3532
識得	-3533
仲以為	-3534
返學	-3535
▁好多人	-3536
之餘	-3537
幾隻	-3538
政司	-3539
都唔同	-3540
黎明	-3541
紀律	-3542
清算	-3543
俾人屌	-3544
興奮	-3545
▁為咗	-3546
外賣	-3547
▁5.	-3548
坐監	-3549
主權	-3550
開口	-3551
主力	-3552
⣿⣿	-3553
保留	-3554
面積	-3555
人就	-3556
到場	-3557
人啦	-3558
警署	-3559
靈魂	-3560
睇得	-3561
機制	-3562
唔怕	-3563
這樣的	-3564
果然	-3565
共識	-3566
指揮	-3567
,3	-3568
民間	-3569
自行	-3570
特色	-3571
好處	-3572
落後	-3573
形成	-3574
高質	-3575
做乜鳩	-3576
▁我想	-3577
咗嘅	-3578
埋嚟	-3579
其他國家	-3580
居然	-3581
教學	-3582
恐懼	-3583
出嚟嘅	-3584
講法	-3585
係咪真係	-3586
▁第一次	-3587
公路	-3588
歐盟	-3589
冚家	-3590
緊急法	-3591
禁區	-3592
一次過	-3593
增長	-3594
大叫	-3595
斯坦	-3596
發動	-3597
一致	-3598
佢咁	-3599
▁幾時	-3600
實際上	-3601
轉身	-3602
一球	-3603
眼睛	-3604
需求	-3605
祕密	-3606
開到	-3607
位置喺	-3608
屋苑	-3609
自爆	-3610
而言	-3611
我可以	-3612
▁手足	-3613
年的	-3614
先叫	-3615
底線	-3616
▁200	-3617
78	-3618
最強	-3619
都無用	-3620
真係唔知	-3621
安慰	-3622
材料	-3623
任何人	-3624
看見	-3625
傾吓	-3626
無咁	-3627
幫人	-3628
瞓覺	-3629
完場	-3630
兒童	-3631
物理	-3632
▁M	-3633
個腦	-3634
我講	-3635
就係要	-3636
對香港	-3637
▁嘩	-3638
組成	-3639
我去	-3640
都仲有	-3641
▁既然	-3642
著數	-3643
冇錢	-3644
踢波	-3645
有限公司	-3646
玩具	-3647
咁多野	-3648
▁琴日	-3649
▁以為	-3650
不論	-3651
嚟做	-3652
▁人哋	-3653
呢間	-3654
反共	-3655
衝出嚟	-3656
屌柒	-3657
發達	-3658
係邊個	-3659
課程	-3660
▁大把	-3661
▁根據	-3662
應該有	-3663
罪行	-3664
出道	-3665
撚住	-3666
真係好難	-3667
訊息	-3668
好無	-3669
隨便	-3670
身家	-3671
出賣	-3672
一兩	-3673
▁長	-3674
獅子	-3675
天水圍	-3676
教會	-3677
見面	-3678
5.	-3679
is	-3680
帶來	-3681
內的	-3682
叫雞	-3683
咁玩	-3684
食野	-3685
檢討	-3686
大遊行	-3687
社工	-3688
仲要係	-3689
提高	-3690
女兒	-3691
令佢	-3692
十一	-3693
咁睇	-3694
蘇聯	-3695
我我	-3696
對自己	-3697
▁巖	-3698
又真係	-3699
完之後	-3700
我也	-3701
成世	-3702
有能力	-3703
引發	-3704
點半	-3705
唔打	-3706
四個	-3707
是但	-3708
而不	-3709
好正常	-3710
睇法	-3711
地址	-3712
我說	-3713
個邊	-3714
剛剛	-3715
預期	-3716
體力	-3717
隧道	-3718
代理	-3719
上訴	-3720
=2	-3721
倫敦	-3722
又想	-3723
拍片	-3724
奴隸	-3725
落街	-3726
都冇人	-3727
發行	-3728
成就	-3729
男性	-3730
班撚樣	-3731
結構	-3732
咗幾多	-3733
警暴	-3734
表明	-3735
統計	-3736
校園	-3737
撚屌	-3738
出奇	-3739
的小	-3740
夢想	-3741
無錢	-3742
我知	-3743
排除	-3744
格蘭	-3745
看來	-3746
多少少	-3747
二人	-3748
負評	-3749
▁平	-3750
塊面	-3751
冇野	-3752
優先	-3753
▁上年	-3754
▁如果有	-3755
別人	-3756
忽然	-3757
傳說	-3758
天真	-3759
會長	-3760
唔落	-3761
宿舍	-3762
▁時間	-3763
包圍	-3764
係幾	-3765
嘅錢	-3766
作客	-3767
準時	-3768
嘅原因	-3769
粗口	-3770
區域	-3771
上身	-3772
呢個問題	-3773
辭職	-3774
咗啦	-3775
影響力	-3776
採取	-3777
意思係	-3778
侮辱	-3779
味道	-3780
割蓆	-3781
▁搞到	-3782
抹黑	-3783
▁又係	-3784
揸車	-3785
八婆	-3786
學家	-3787
▁那	-3788
上場	-3789
澄清	-3790
師父	-3791
指數	-3792
撚用	-3793
咁上下	-3794
外面	-3795
綜合	-3796
要打	-3797
發聲	-3798
咗係	-3799
都打	-3800
煽動	-3801
你條	-3802
.......	-3803
▁佢係	-3804
咁有	-3805
對付	-3806
就用	-3807
再加	-3808
無視	-3809
搭車	-3810
球證	-3811
出了	-3812
細節	-3813
命運	-3814
每月	-3815
有兩	-3816
都用	-3817
候選人	-3818
近日	-3819
基因	-3820
網友	-3821
▁轉	-3822
得我	-3823
高官	-3824
所有野	-3825
最撚	-3826
談判	-3827
無可	-3828
阿仙奴	-3829
講話	-3830
睇落	-3831
日前	-3832
個場	-3833
實現	-3834
聰明	-3835
▁諗起	-3836
學識	-3837
/0	-3838
辦公	-3839
----	-3840
查詢	-3841
操作	-3842
者的	-3843
新人	-3844
唔緊要	-3845
▁反	-3846
神經	-3847
一萬	-3848
私樓	-3849
肥婆	-3850
▁一陣	-3851
信用卡	-3852
新嘅	-3853
▁想知	-3854
夏天	-3855
武肺	-3856
98	-3857
翻譯	-3858
輕輕	-3859
咁咪	-3860
▁單	-3861
搵我	-3862
傳播	-3863
▁佢話	-3864
首次	-3865
這次	-3866
一千	-3867
▁其實佢	-3868
就當	-3869
協會	-3870
我相信	-3871
▁後	-3872
大咗	-3873
每天	-3874
入面嘅	-3875
得幾	-3876
輿論	-3877
接受唔到	-3878
臭雞	-3879
同佢地	-3880
經營	-3881
可以去	-3882
所謂嘅	-3883
的情況	-3884
嚟到	-3885
三罷	-3886
註冊	-3887
▁A	-3888
點先	-3889
視線	-3890
展開	-3891
情報	-3892
新移民	-3893
▁最好	-3894
見唔到	-3895
回來	-3896
高鐵	-3897
中華民國	-3898
邀請	-3899
改名	-3900
推翻	-3901
碼頭	-3902
這一	-3903
窮人	-3904
半個鐘	-3905
捨得	-3906
差不多	-3907
/12	-3908
代價	-3909
來到	-3910
2015	-3911
右手	-3912
並沒有	-3913
就快	-3914
關你	-3915
仲有咩	-3916
盡力	-3917
伊朗	-3918
會被	-3919
家族	-3920
▁何	-3921
實行	-3922
覺醒	-3923
180	-3924
▁頭	-3925
物業	-3926
體驗	-3927
當選	-3928
短期	-3929
第一日	-3930
都好過	-3931
說明	-3932
ou	-3933
="2	-3934
口氣	-3935
聯辦	-3936
▁由於	-3937
提早	-3938
公投	-3939
已有	-3940
好事	-3941
條線	-3942
檢測	-3943
都係想	-3944
唔差	-3945
搵返	-3946
又指	-3947
必然	-3948
比佢地	-3949
小組	-3950
嘅一個市鎮	-3951
▁老實講	-3952
係由	-3953
佔領	-3954
就想	-3955
名字	-3956
我一	-3957
專登	-3958
貿易戰	-3959
希望大家	-3960
千祈	-3961
共匪	-3962
站在	-3963
有無人	-3964
做生意	-3965
春袋	-3966
物浦	-3967
▁五	-3968
保皇	-3969
比狗	-3970
係法國嘅一個市鎮	-3971
▁始終	-3972
街頭	-3973
所以先	-3974
歲的	-3975
超越	-3976
簡直	-3977
市區	-3978
回合	-3979
43	-3980
最快	-3981
其他野	-3982
▁南	-3983
721	-3984
出生	-3985
▁狗	-3986
去買	-3987
▁一直	-3988
會覺得	-3989
金錢	-3990
到有	-3991
▁全部	-3992
唔係咁	-3993
留下	-3994
到咗	-3995
臺灣人	-3996
順利	-3997
大過	-3998
身為	-3999
有人話	-4000
出入	-4001
跟進	-4002
▁紅	-4003
呢個係	-4004
保釋	-4005
就死	-4006
錯咗	-4007
我話	-4008
事實上	-4009
咗咁耐	-4010
運輸	-4011
夾硬	-4012
邪惡	-4013
無謂	-4014
完整	-4015
睇得出	-4016
侵侵	-4017
可能性	-4018
營運	-4019
76	-4020
一定唔會	-4021
粒鐘	-4022
戰略	-4023
特別係	-4024
身份證	-4025
瞓醒	-4026
肉酸	-4027
樓梯	-4028
做嘅	-4029
過份	-4030
):	-4031
拎住	-4032
家屬	-4033
吓佢	-4034
利申	-4035
機率	-4036
熱血	-4037
用途	-4038
前後	-4039
▁你覺得	-4040
th	-4041
追究	-4042
因為你	-4043
義工	-4044
洗腦	-4045
誤會	-4046
成咁	-4047
見到有	-4048
旁邊	-4049
廢事	-4050
親中	-4051
到上	-4052
(,	-4053
隻腳	-4054
沖涼	-4055
到嘅	-4056
會用	-4057
說道	-4058
▁你係	-4059
▁加上	-4060
抗議	-4061
未知	-4062
九成	-4063
▁被	-4064
歐美	-4065
變到	-4066
你唔好	-4067
博士	-4068
篇文	-4069
真係冇	-4070
撲野	-4071
,6	-4072
粵語	-4073
一野	-4074
主要係	-4075
▁暫時	-4076
美心	-4077
維修	-4078
吓話	-4079
道路	-4080
國家隊	-4081
勁多	-4082
但其實	-4083
都無人	-4084
火車	-4085
五年	-4086
顏色	-4087
▁B	-4088
9.	-4089
多多	-4090
同香港	-4091
客觀	-4092
吓一代	-4093
小弟	-4094
強化	-4095
心水	-4096
咪算	-4097
教師	-4098
無力	-4099
點幾	-4100
涉嫌	-4101
▁總	-4102
同其他	-4103
早上	-4104
,19	-4105
▁劉	-4106
要睇	-4107
▁王	-4108
在於	-4109
777	-4110
年青	-4111
讓我	-4112
綠色	-4113
企圖	-4114
中出	-4115
人手	-4116
衛生	-4117
愈嚟	-4118
聯會	-4119
開發	-4120
救人	-4121
果吓	-4122
足總	-4123
濕鳩	-4124
行到	-4125
第二次	-4126
一係就	-4127
▁你自己	-4128
ic	-4129
白癡	-4130
得意	-4131
嗰隻	-4132
加泰	-4133
▁梁	-4134
反感	-4135
/11	-4136
律政司	-4137
承受	-4138
去打	-4139
耳機	-4140
上帝	-4141
適應	-4142
傑志	-4143
月尾	-4144
▁講到	-4145
雙重	-4146
投入	-4147
食得	-4148
01	-4149
間屋	-4150
炸彈	-4151
言論自由	-4152
愈嚟愈	-4153
反駁	-4154
審查	-4155
▁15	-4156
支付	-4157
來愈	-4158
屍體	-4159
討厭	-4160
▁新手	-4161
是我	-4162
啦你	-4163
+1	-4164
價格	-4165
用過	-4166
做完	-4167
好似好	-4168
▁你老母	-4169
一個鐘	-4170
▁巴	-4171
高過	-4172
就叫	-4173
..」	-4174
幼稚	-4175
人多	-4176
▁L	-4177
節奏	-4178
跳樓	-4179
▁14	-4180
三個月	-4181
攞到	-4182
半大	-4183
愈來愈	-4184
即場	-4185
咁勁	-4186
女生	-4187
我都會	-4188
新鮮	-4189
有的	-4190
打下	-4191
現象	-4192
啲狗	-4193
太平	-4194
▁但你	-4195
返香港	-4196
軍師	-4197
成件事	-4198
額外	-4199
▁「「	-4200
練習	-4201
天琦	-4202
il	-4203
買唔到	-4204
都出	-4205
美股	-4206
對待	-4207
就開始	-4208
讀者	-4209
等我	-4210
事業	-4211
創作	-4212
成交	-4213
聲援	-4214
過多	-4215
][	-4216
了解	-4217
臺北	-4218
」(	-4219
唔介意	-4220
▁呢度	-4221
都有得	-4222
許多	-4223
類型	-4224
移動	-4225
技巧	-4226
▁對於	-4227
你點	-4228
找到	-4229
記錯	-4230
想去	-4231
▁男人	-4232
解散	-4233
玩過	-4234
上有	-4235
位於	-4236
資助	-4237
自稱	-4238
防疫	-4239
行街	-4240
位巴打	-4241
粉紅	-4242
▁本來	-4243
2)	-4244
一度	-4245
差啲	-4246
清晰	-4247
可能有	-4248
上市	-4249
包裝	-4250
整合	-4251
▁話說	-4252
同自己	-4253
呢兩	-4254
房屋	-4255
唔好意思	-4256
波臺	-4257
納粹	-4258
▁問題	-4259
▁細	-4260
嘅咩	-4261
重點係	-4262
▁好心	-4263
為香港	-4264
鋪頭	-4265
專心	-4266
咪得囉	-4267
再講	-4268
手續	-4269
長官	-4270
好似有	-4271
保守	-4272
▁直接	-4273
嘅都係	-4274
帶領	-4275
▁T	-4276
佢喺	-4277
阿狗	-4278
剛才	-4279
容許	-4280
董事	-4281
又唔會	-4282
理念	-4283
▁細個	-4284
指示	-4285
你啦	-4286
▁估唔到	-4287
爆佢	-4288
萬幾	-4289
入侵	-4290
:1	-4291
好啦	-4292
你仲	-4293
▁一日	-4294
咪就係	-4295
片段	-4296
估到	-4297
好奇	-4298
極度	-4299
▁不過我	-4300
數學	-4301
▁我見	-4302
▁咁撚	-4303
也會	-4304
物品	-4305
▁P	-4306
回復	-4307
負擔	-4308
受害者	-4309
▁愛	-4310
子女	-4311
講明	-4312
▁有個	-4313
隨即	-4314
▁唔該	-4315
人去	-4316
你呀	-4317
唔走	-4318
男主	-4319
光頭	-4320
美軍	-4321
憤怒	-4322
埋單	-4323
管治	-4324
重複	-4325
時代革命	-4326
咗之後	-4327
勉強	-4328
西北	-4329
裏面	-4330
初選	-4331
計埋	-4332
接受到	-4333
經典	-4334
4-	-4335
想問吓	-4336
行政區	-4337
同性	-4338
▁一開始	-4339
來源	-4340
阻住	-4341
廢柴	-4342
組別	-4343
唔大	-4344
後的	-4345
雙眼	-4346
令你	-4347
吓先	-4348
裁判官	-4349
無辜	-4350
呢家	-4351
特區政府	-4352
滲透	-4353
平等	-4354
自己做	-4355
不起	-4356
玩啦	-4357
要等	-4358
上前	-4359
又或者	-4360
化妝	-4361
遊客	-4362
▁海	-4363
制服	-4364
某啲	-4365
十個	-4366
變相	-4367
有一日	-4368
返轉頭	-4369
▁如果佢	-4370
成日都	-4371
聯合國	-4372
領袖	-4373
陣營	-4374
幾句	-4375
我睇	-4376
咁解	-4377
啊啊	-4378
廢話	-4379
差好遠	-4380
將於	-4381
假如	-4382
防止	-4383
右邊	-4384
領事	-4385
▁以後	-4386
發生咩事	-4387
交換	-4388
係人	-4389
番去	-4390
預測	-4391
▁又話	-4392
我地嘅	-4393
re	-4394
集體	-4395
10%	-4396
會否	-4397
瞬間	-4398
今朝	-4399
出嘅	-4400
捉到	-4401
我唔知	-4402
光環	-4403
上司	-4404
▁可惜	-4405
太空	-4406
你真係	-4407
快速	-4408
佢好	-4409
250	-4410
一樣野	-4411
嘅女仔	-4412
放在	-4413
笑容	-4414
不敢	-4415
時刻	-4416
未試過	-4417
請問	-4418
▁拉	-4419
的事情	-4420
核彈	-4421
──	-4422
56	-4423
一隊	-4424
回頭	-4425
坐在	-4426
▁我會	-4427
佢哋嘅	-4428
混亂	-4429
變態	-4430
單身	-4431
▁13	-4432
時空	-4433
▁2020	-4434
業務	-4435
和你	-4436
幾場	-4437
不住	-4438
根本係	-4439
一晚	-4440
色列	-4441
不想	-4442
號碼	-4443
警務	-4444
走啦	-4445
有嘅	-4446
葡萄	-4447
佢地係	-4448
學者	-4449
熟悉	-4450
尼亞	-4451
得番	-4452
▁其實係	-4453
阿叔	-4454
政黨	-4455
身材	-4456
▁兩個	-4457
出糧	-4458
難民	-4459
的聲音	-4460
要你	-4461
各地	-4462
做吓	-4463
87	-4464
留返	-4465
份子	-4466
收集	-4467
▁車	-4468
大細	-4469
▁不嬲	-4470
放過	-4471
鎮壓	-4472
屌打	-4473
自己都	-4474
唔鐘意	-4475
語氣	-4476
俾個	-4477
就像	-4478
咗就	-4479
擔任	-4480
提名	-4481
個星期	-4482
把握	-4483
開會	-4484
歐霸	-4485
咁諗	-4486
召喚	-4487
當我	-4488
幾撚	-4489
永久	-4490
埋個	-4491
▁咁多	-4492
武漢肺炎	-4493
條撚樣	-4494
多少	-4495
有冇得	-4496
家用	-4497
前途	-4498
他在	-4499
小巴	-4500
啲嘅	-4501
香港獨立	-4502
下降	-4503
缺點	-4504
發言人	-4505
工廠	-4506
行過	-4507
以往	-4508
立法會議員	-4509
羣眾	-4510
寵物	-4511
蛋糕	-4512
不及	-4513
▁呀	-4514
是一	-4515
咗咁多	-4516
86	-4517
▁但如果	-4518
打仗	-4519
智商	-4520
青春	-4521
依賴	-4522
反彈	-4523
▁大佬	-4524
第二日	-4525
先開始	-4526
▁2018	-4527
都好難	-4528
的時間	-4529
▁諗住	-4530
批准	-4531
但有	-4532
嘅我	-4533
大大聲	-4534
影響到	-4535
獨立調查	-4536
沉默	-4537
領隊	-4538
8.	-4539
天文	-4540
而已	-4541
口水	-4542
84	-4543
長遠	-4544
實體	-4545
▁最緊要	-4546
助攻	-4547
但要	-4548
▁可	-4549
我唔係	-4550
準備好	-4551
▁亦	-4552
窮撚	-4553
有大	-4554
好感	-4555
退出	-4556
高達	-4557
年度	-4558
說法	-4559
打電話	-4560
首期	-4561
,9	-4562
▁我記得	-4563
戰士	-4564
大仙	-4565
死啦	-4566
只係想	-4567
完全唔	-4568
過唔到	-4569
4000	-4570
圖片	-4571
機票	-4572
污糟	-4573
遮打	-4574
美國人	-4575
▁每日	-4576
一旦	-4577
都冇得	-4578
▁試	-4579
遲吓	-4580
常識	-4581
單純	-4582
有需要	-4583
就覺得	-4584
送頭	-4585
特殊	-4586
每人	-4587
錢買	-4588
望吓	-4589
千祈唔好	-4590
同班	-4591
件衫	-4592
好鍾意	-4593
港府	-4594
眾人	-4595
跳舞	-4596
嚟睇	-4597
精英	-4598
應該唔會	-4599
果度	-4600
實質	-4601
唔小心	-4602
議題	-4603
學人	-4604
絕望	-4605
爺爺	-4606
你一	-4607
好辛苦	-4608
間房	-4609
個閪	-4610
▁呢隻	-4611
貨幣	-4612
仇恨	-4613
5-	-4614
展示	-4615
天生	-4616
▁生	-4617
由頭	-4618
利物浦	-4619
了一個	-4620
耶穌	-4621
2.0	-4622
嘅香港	-4623
部署	-4624
都唔可以	-4625
隻貓	-4626
女孩	-4627
樣子	-4628
元素	-4629
物質	-4630
流行	-4631
兒登	-4632
等待	-4633
▁問題係	-4634
再用	-4635
帶風向	-4636
出曬	-4637
比人拉	-4638
中聯辦	-4639
咁簡單	-4640
通知書	-4641
個價	-4642
情侶	-4643
好高	-4644
騎士	-4645
42	-4646
都係用	-4647
十幾年	-4648
▁我估	-4649
▁分	-4650
中年	-4651
大樓	-4652
爆咗	-4653
感受到	-4654
被迫	-4655
影到	-4656
等你	-4657
都得啦	-4658
早啲	-4659
諗唔到	-4660
中醫	-4661
眼淚	-4662
▁沙	-4663
破產	-4664
▁啲人	-4665
家陣	-4666
戲院	-4667
復活	-4668
偉大	-4669
▁尋日	-4670
圖書	-4671
樓市	-4672
恭喜	-4673
場波	-4674
三分	-4675
香港有	-4676
▁當時	-4677
撚日	-4678
十字	-4679
▁周	-4680
參賽	-4681
1%	-4682
開門	-4683
▁16	-4684
▁住	-4685
主張	-4686
委任	-4687
夠唔夠	-4688
新的	-4689
時機	-4690
其他地方	-4691
幾十年	-4692
▁癡撚線	-4693
話有	-4694
唔明點解	-4695
本書	-4696
微博	-4697
▁落	-4698
本土派	-4699
強大	-4700
再去	-4701
十五	-4702
清醒	-4703
▁林鄭	-4704
幾萬	-4705
▁*	-4706
行去	-4707
!?	-4708
一天	-4709
指控	-4710
謀殺	-4711
el	-4712
撞到	-4713
同情	-4714
廢青	-4715
應對	-4716
平日	-4717
嚟架	-4718
走得	-4719
明日	-4720
我對	-4721
無奈	-4722
唔知點	-4723
個吓	-4724
月中	-4725
》(	-4726
提及	-4727
處於	-4728
照片	-4729
我搵	-4730
▁原	-4731
兩名	-4732
小隊	-4733
晚晚	-4734
見識	-4735
未見過	-4736
暗示	-4737
祖國	-4738
係講	-4739
視為	-4740
推到	-4741
▁若	-4742
蒙面法	-4743
,2	-4744
自己有	-4745
呢段	-4746
▁驚	-4747
▁你唔	-4748
世界上	-4749
過嘅	-4750
一睇	-4751
▁:	-4752
列車	-4753
▁你可以	-4754
你都係	-4755
雙普選	-4756
重建	-4757
精靈	-4758
,7	-4759
明天	-4760
我在	-4761
真係幾	-4762
投降	-4763
百萬人	-4764
啲乜	-4765
好重要	-4766
仲想	-4767
國旗	-4768
香港警察	-4769
屠殺	-4770
見人	-4771
克蘭	-4772
▁但其實	-4773
先出	-4774
根本就係	-4775
撤回	-4776
一面	-4777
規劃	-4778
條數	-4779
給我	-4780
承擔	-4781
打緊	-4782
良好	-4783
又多	-4784
程式	-4785
輸入	-4786
唔難	-4787
中方	-4788
正常人	-4789
並無	-4790
唔著	-4791
違法	-4792
明點解	-4793
巨人	-4794
)">	-4795
合格	-4796
偏偏	-4797
基地	-4798
▁唔知點解	-4799
徹底	-4800
惡法	-4801
▁文	-4802
學術	-4803
故仔	-4804
香港人嘅	-4805
改咗	-4806
釋放	-4807
去食	-4808
每一個	-4809
來了	-4810
武裝	-4811
議席	-4812
行政長官	-4813
纔是	-4814
唔驚	-4815
1)	-4816
未夠	-4817
傾向	-4818
中產	-4819
有排	-4820
過人	-4821
地面	-4822
睇波	-4823
▁第三	-4824
掌握	-4825
▁喂	-4826
人民共和國	-4827
啦屌你老母	-4828
抑鬱	-4829
屌佢老母	-4830
▁神	-4831
恥笑	-4832
錄音	-4833
自已	-4834
謝謝	-4835
嘅關係	-4836
看看	-4837
教訓	-4838
撚狗	-4839
秩序	-4840
收費	-4841
吹到	-4842
是不	-4843
▁樓豬	-4844
拎咗	-4845
▁我知	-4846
戰場	-4847
殺死	-4848
放鬆	-4849
成人	-4850
根本無	-4851
印尼	-4852
就打	-4853
隨著	-4854
但如果	-4855
地說	-4856
?)	-4857
就唔洗	-4858
是因為	-4859
性的	-4860
勞工	-4861
福建	-4862
聯邦	-4863
我估	-4864
不在	-4865
2.5	-4866
早已	-4867
後防	-4868
遊說	-4869
住先	-4870
不安	-4871
兩位	-4872
管局	-4873
▁火	-4874
假期	-4875
不明	-4876
再有	-4877
往往	-4878
自己個	-4879
佢要	-4880
荷蘭	-4881
後者	-4882
走人	-4883
三四	-4884
▁唔識	-4885
一把	-4886
▁嗰	-4887
2022	-4888
放下	-4889
▁古	-4890
真係可以	-4891
股市	-4892
領域	-4893
場運動	-4894
無聊	-4895
暫停	-4896
圍爐	-4897
一片	-4898
化學	-4899
刻意	-4900
拜登	-4901
高手	-4902
▁舊	-4903
規矩	-4904
am	-4905
與其	-4906
中學生	-4907
冬天	-4908
形勢	-4909
一對	-4910
小事	-4911
由細	-4912
1500	-4913
穩陣	-4914
豬肉	-4915
崩潰	-4916
亦係	-4917
10.	-4918
笑話	-4919
亦會	-4920
都冇乜	-4921
又得	-4922
做埋	-4923
▁一早	-4924
已經夠	-4925
每個月	-4926
被控	-4927
有所	-4928
未到	-4929
機關	-4930
終極	-4931
放咗	-4932
玩咗	-4933
成隊	-4934
▁屋企	-4935
打個	-4936
▁起	-4937
精神病	-4938
植物	-4939
士氣	-4940
萬一	-4941
▁你係咪	-4942
大家都係	-4943
覺得係	-4944
▁6.	-4945
上述	-4946
監察	-4947
狙擊	-4948
海洋	-4949
知道自己	-4950
睇緊	-4951
億美元	-4952
普巴	-4953
▁日期	-4954
你無	-4955
產業	-4956
呢班人	-4957
跟本	-4958
停車場	-4959
遺憾	-4960
去日本	-4961
▁更	-4962
冇曬	-4963
問道	-4964
住你	-4965
同大	-4966
上唔到	-4967
▁10.	-4968
睇戲	-4969
外資	-4970
財政	-4971
狗屋	-4972
假膠	-4973
▁真係好	-4974
出的	-4975
咁撚樣	-4976
得一個	-4977
捉鬼	-4978
▁條女	-4979
係乜	-4980
反省	-4981
個幾	-4982
公道	-4983
就收	-4984
靜靜	-4985
走向	-4986
都唔做	-4987
吓啦	-4988
今集	-4989
猶太	-4990
深入	-4991
命令	-4992
▁冇人	-4993
行得	-4994
仲有冇	-4995
▁作為	-4996
▁睇到	-4997
支持者	-4998
撚完	-4999
有啲人	-5000
哲學	-5001
▁同意	-5002
果日	-5003
居住	-5004
96	-5005
講出嚟	-5006
的我	-5007
各有各	-5008
不反對	-5009
可以有	-5010
本報	-5011
或許	-5012
兩條	-5013
時事	-5014
1811	-5015
行山	-5016
》、	-5017
激動	-5018
打過	-5019
上臺	-5020
有咩用	-5021
有人會	-5022
天堂	-5023
應付	-5024
性嘅	-5025
有利	-5026
好野	-5027
用於	-5028
當係	-5029
消耗	-5030
還要	-5031
手腳	-5032
故意	-5033
信息	-5034
歌詞	-5035
根廷	-5036
可行	-5037
定點	-5038
一段時間	-5039
理你	-5040
佢都係	-5041
是個	-5042
人格	-5043
透明	-5044
兩者	-5045
幾個鐘	-5046
婆婆	-5047
我用	-5048
過後	-5049
不時	-5050
真係咁	-5051
未呀	-5052
定期	-5053
總部	-5054
拉人	-5055
三日	-5056
上限	-5057
國際戰線	-5058
不見	-5059
簽名	-5060
自從	-5061
廢物	-5062
給予	-5063
嘅巴打	-5064
跌到	-5065
以為係	-5066
立刻	-5067
持有	-5068
光明	-5069
睇醫生	-5070
出路	-5071
同行	-5072
頂到	-5073
做返	-5074
人咁	-5075
微笑	-5076
點都要	-5077
全部都	-5078
條款	-5079
唔死	-5080
好慘	-5081
鳩你	-5082
以嚟	-5083
唔對	-5084
攝影	-5085
體能	-5086
我唔會	-5087
▁男	-5088
天橋	-5089
偷偷	-5090
嘅都	-5091
論壇	-5092
全場	-5093
水準	-5094
▁女人	-5095
創意	-5096
模型	-5097
出嚟講	-5098
同人講	-5099
搵你	-5100
撚過	-5101
時段	-5102
▁突然	-5103
58	-5104
係呀	-5105
體制	-5106
來講	-5107
的感覺	-5108
評價	-5109
她們	-5110
當佢	-5111
底下	-5112
買個	-5113
無野講	-5114
少啲	-5115
補習	-5116
落實	-5117
換咗	-5118
理佢	-5119
癡線佬	-5120
恐嚇	-5121
表白	-5122
攻略	-5123
監禁	-5124
第時	-5125
好大機會	-5126
以色列	-5127
圖書館	-5128
▁有冇巴打	-5129
》。	-5130
幫忙	-5131
▁感覺	-5132
出版	-5133
智障	-5134
阿婆	-5135
我都想	-5136
商家	-5137
架嘛	-5138
可見	-5139
有權	-5140
睇埋	-5141
私了	-5142
電臺	-5143
殺咗	-5144
差距	-5145
我先	-5146
主導	-5147
我都唔	-5148
▁國	-5149
上堂	-5150
一出	-5151
▁關	-5152
人在	-5153
控方	-5154
馬來	-5155
又叫	-5156
算係咁	-5157
我見	-5158
兩張	-5159
神祕	-5160
巴黎	-5161
好撚多	-5162
比利	-5163
下手	-5164
▁原本	-5165
疑似	-5166
財產	-5167
▁唔講	-5168
全日	-5169
近期	-5170
但無	-5171
港澳	-5172
很快	-5173
撚個	-5174
目光	-5175
真係唔好	-5176
踢得	-5177
循環	-5178
無數	-5179
地鐵站	-5180
好開心	-5181
落場	-5182
你啲	-5183
普通人	-5184
含撚	-5185
都唔使	-5186
人道	-5187
饅頭	-5188
效力	-5189
分數	-5190
舉辦	-5191
採訪	-5192
做雞	-5193
喺到	-5194
上門	-5195
觀點	-5196
會在	-5197
▁一定要	-5198
明確	-5199
婚姻	-5200
黃藍	-5201
出身	-5202
各國	-5203
▁繼續	-5204
一味	-5205
一支	-5206
烏克蘭	-5207
套野	-5208
熱線	-5209
仲有好多	-5210
也許	-5211
劇透	-5212
篤灰	-5213
,4	-5214
▁612	-5215
牙朗	-5216
舞臺	-5217
就係因為	-5218
諮詢	-5219
/10	-5220
柒柒	-5221
▁姐係	-5222
傷口	-5223
精彩	-5224
傷者	-5225
青衣	-5226
階級	-5227
俾啲	-5228
檢控	-5229
蒙古	-5230
如今	-5231
為自己	-5232
▁初	-5233
港超	-5234
代替	-5235
但他	-5236
74	-5237
幹預	-5238
重覆	-5239
唔認	-5240
又唔見	-5241
中午	-5242
果句	-5243
唔抵	-5244
嚇到	-5245
防線	-5246
返大陸	-5247
定位	-5248
家中	-5249
心臟	-5250
▁唔撚	-5251
佢去	-5252
陌生	-5253
▁卡	-5254
出軌	-5255
租金	-5256
▁有錢	-5257
細胞	-5258
-1	-5259
水貨	-5260
描述	-5261
,《	-5262
▁$	-5263
客人	-5264
實彈	-5265
畀你	-5266
▁同時	-5267
難得	-5268
係兩	-5269
衝動	-5270
擴大	-5271
無關	-5272
吓一個	-5273
之處	-5274
大媽	-5275
品牌	-5276
得啦	-5277
捐錢	-5278
炒車	-5279
流動	-5280
要搵	-5281
乜柒	-5282
都唔會有	-5283
上了	-5284
溫柔	-5285
立會	-5286
▁買咗	-5287
好冇	-5288
的手	-5289
我唔解鎖	-5290
整到	-5291
早就	-5292
▁咁咪	-5293
都沒有	-5294
有新	-5295
缺乏	-5296
瞓咗	-5297
心裡	-5298
真正嘅	-5299
親自	-5300
分享吓	-5301
▁賣	-5302
根本冇	-5303
心口	-5304
著我	-5305
ch	-5306
熱刺	-5307
幾歲	-5308
想起	-5309
落到	-5310
原來係	-5311
主教	-5312
我都有	-5313
祕書	-5314
所講	-5315
星火	-5316
屬性	-5317
卻是	-5318
跌咗	-5319
臥底	-5320
防中	-5321
返唔到	-5322
好靚	-5323
固定	-5324
脫離	-5325
消滅	-5326
啪啪	-5327
包皮	-5328
我知道	-5329
外圍	-5330
50%	-5331
咪一樣	-5332
真係想	-5333
長時間	-5334
角球	-5335
街市	-5336
便衣	-5337
▁我相信	-5338
外國勢力	-5339
已經可以	-5340
啲女	-5341
as	-5342
修改	-5343
長者	-5344
畀佢	-5345
放大	-5346
都唔肯	-5347
▁山	-5348
良知	-5349
美麗	-5350
西甲	-5351
開支	-5352
▁7.	-5353
▁唔怪得	-5354
屌到	-5355
▁警方	-5356
負責任	-5357
頭盔	-5358
有野	-5359
對中國	-5360
尋找	-5361
直情	-5362
由佢	-5363
外人	-5364
變返	-5365
玩得	-5366
我仲	-5367
係時候	-5368
同佳	-5369
更多人	-5370
多一	-5371
個別	-5372
周街	-5373
發明	-5374
領先	-5375
的那	-5376
難道	-5377
正評	-5378
廿年	-5379
之間嘅	-5380
集中營	-5381
另一邊	-5382
南韓	-5383
呀媽	-5384
難過	-5385
鳩佢	-5386
用返	-5387
危害	-5388
▁英	-5389
南海	-5390
比啲	-5391
,1	-5392
的香港	-5393
94	-5394
▁證明	-5395
評分	-5396
保養	-5397
埋你	-5398
73	-5399
實用	-5400
老屎忽	-5401
正如	-5402
伊斯	-5403
外界	-5404
▁琴晚	-5405
應承	-5406
公廁	-5407
出動	-5408
真普選	-5409
傳染	-5410
堅定	-5411
逐漸	-5412
長命	-5413
聯合聲明	-5414
彷彿	-5415
費用	-5416
理論上	-5417
水晶	-5418
▁即使	-5419
分散	-5420
信念	-5421
▁一齊	-5422
不可能	-5423
都做唔到	-5424
嚴格	-5425
樣嘢	-5426
答你	-5427
唔想再	-5428
過往	-5429
相比	-5430
粉絲	-5431
五十	-5432
▁北	-5433
你同	-5434
都做	-5435
搞得	-5436
試嚇	-5437
不同的	-5438
客戶	-5439
來港	-5440
不好	-5441
買過	-5442
令自己	-5443
海關	-5444
石頭	-5445
,8	-5446
重大	-5447
污染	-5448
人權法	-5449
▁癡線	-5450
視乎	-5451
係為咗	-5452
=24	-5453
廢中	-5454
▁又要	-5455
▁17	-5456
▁照	-5457
2012	-5458
露出	-5459
佢唔係	-5460
抽中	-5461
按揭	-5462
無知	-5463
進度	-5464
▁肥	-5465
都照	-5466
▁年	-5467
▁華	-5468
亂咁	-5469
來回	-5470
2-3	-5471
地震	-5472
無曬	-5473
降低	-5474
就連	-5475
害怕	-5476
嘅就係	-5477
而家係	-5478
成日話	-5479
祝福	-5480
▁依個	-5481
大幅	-5482
買野	-5483
不利	-5484
唔舒服	-5485
股價	-5486
有錢人	-5487
留在	-5488
一問	-5489
割席	-5490
我都唔知	-5491
會唔會有	-5492
正是	-5493
都被	-5494
仲有人	-5495
出局	-5496
美國佬	-5497
成份	-5498
廣播	-5499
必定	-5500
返咗	-5501
侵犯	-5502
呢幾日	-5503
入手	-5504
經歷過	-5505
嗰日	-5506
屎眼	-5507
並不是	-5508
追擊	-5509
重有	-5510
常見	-5511
漸漸	-5512
唔出聲	-5513
咁撚多	-5514
吓你	-5515
咁啱	-5516
,10	-5517
都無得	-5518
的東西	-5519
▁和理非	-5520
」?	-5521
便是	-5522
特別行政區	-5523
但唔	-5524
="24	-5525
選票	-5526
人做	-5527
尤其是	-5528
車仔	-5529
過了	-5530
口味	-5531
避開	-5532
前提	-5533
▁現在	-5534
籃球	-5535
隻眼	-5536
身亡	-5537
就係想	-5538
▁走	-5539
民調	-5540
先有得	-5541
個日	-5542
快閃	-5543
健身	-5544
冇分別	-5545
我都好	-5546
心痛	-5547
黑衫	-5548
上季	-5549
一個星期	-5550
在意	-5551
體系	-5552
佢想	-5553
金屬	-5554
09	-5555
心目	-5556
遲到	-5557
at	-5558
聯繫	-5559
雨傘	-5560
="17	-5561
▁臺	-5562
地步	-5563
落雨	-5564
都係會	-5565
溝女	-5566
最鍾意	-5567
▁整	-5568
▁其實你	-5569
幾多次	-5570
一方	-5571
▁坐	-5572
佢一	-5573
舉報	-5574
具體	-5575
對外	-5576
月入	-5577
壽司	-5578
抵制	-5579
得快	-5580
某程度	-5581
▁2021	-5582
最初	-5583
借錢	-5584
股份	-5585
住宅	-5586
都係因為	-5587
認知	-5588
樂觀	-5589
大家一齊	-5590
東亞	-5591
乖乖	-5592
髮型	-5593
太古	-5594
王子	-5595
係睇	-5596
綜藝	-5597
本質	-5598
之際	-5599
抵死	-5600
信仰	-5601
同啲	-5602
東北	-5603
=17	-5604
買完	-5605
相似	-5606
▁無錯	-5607
▁全世界	-5608
呢一	-5609
鳩人	-5610
稱為	-5611
的行為	-5612
無錯	-5613
條仆街	-5614
更有	-5615
唔值得	-5616
之後再	-5617
平方	-5618
已經唔係	-5619
雙重標準	-5620
四年	-5621
賺到	-5622
▁幫	-5623
姊妹	-5624
▁讀	-5625
張卡	-5626
辦公室	-5627
都輸	-5628
電視臺	-5629
俾狗	-5630
層面	-5631
唔支持	-5632
佢冇	-5633
推文	-5634
監獄	-5635
攞嚟	-5636
被動	-5637
毅進	-5638
第五	-5639
濫捕	-5640
到達	-5641
自然會	-5642
都係有	-5643
核突	-5644
辯方	-5645
構成	-5646
唔好睇	-5647
一部	-5648
三次	-5649
拜仁	-5650
分身	-5651
▁當你	-5652
被自殺	-5653
睇睇	-5654
比人打	-5655
咪話	-5656
起步	-5657
54	-5658
0.5	-5659
回贈	-5660
風氣	-5661
創新	-5662
間唔中	-5663
審判	-5664
異性	-5665
=23	-5666
出色	-5667
▁我要	-5668
月底	-5669
阿伯	-5670
多兩	-5671
搞清楚	-5672
最勁	-5673
公海	-5674
月供	-5675
乜撚嘢	-5676
完結	-5677
情人	-5678
打贏	-5679
=16	-5680
佢先	-5681
拎去	-5682
處女	-5683
只好	-5684
▁清	-5685
▁只有	-5686
淘汰	-5687
高興	-5688
就出	-5689
1111	-5690
間接	-5691
一線	-5692
古代	-5693
唔覺得	-5694
返你	-5695
簽證	-5696
就自己	-5697
平凡	-5698
係美國	-5699
從而	-5700
汽車	-5701
墮樓	-5702
長的	-5703
/7	-5704
都唔錯	-5705
層次	-5706
編劇	-5707
營養	-5708
鍵盤	-5709
作戰	-5710
10000	-5711
▁我之前	-5712
▁羅	-5713
咁濟	-5714
女士	-5715
後尾	-5716
落咗	-5717
陣間	-5718
姑娘	-5719
="16	-5720
多名	-5721
強行	-5722
呢個時候	-5723
形態	-5724
白人	-5725
評估	-5726
高速	-5727
呢啲人	-5728
請你	-5729
呢樣嘢	-5730
▁30	-5731
股東	-5732
就大	-5733
可疑	-5734
佢可以	-5735
▁正如	-5736
鄉下	-5737
勤力	-5738
按照	-5739
一同	-5740
="23	-5741
搞唔掂	-5742
人身	-5743
電梯	-5744
心入面	-5745
中華人民共和國	-5746
失控	-5747
總是	-5748
剩下	-5749
開個	-5750
在此	-5751
發佈	-5752
一不可	-5753
▁頂	-5754
欺凌	-5755
體字	-5756
▁咪係	-5757
吓自己	-5758
非法集結	-5759
比自己	-5760
機器	-5761
▁安	-5762
維穩	-5763
先去	-5764
▁唔係話	-5765
▁算啦	-5766
逃避	-5767
六月	-5768
患者	-5769
菲律	-5770
喺屋企	-5771
引渡	-5772
你冇	-5773
論點	-5774
▁H	-5775
演出	-5776
走了	-5777
領事館	-5778
」「	-5779
都睇	-5780
先要	-5781
▁輸	-5782
帶著	-5783
關我	-5784
不過我	-5785
數目	-5786
選手	-5787
菲律賓	-5788
▁自從	-5789
坦白	-5790
▁唯一	-5791
返到屋企	-5792
級數	-5793
先講	-5794
根本就	-5795
101	-5796
知自己	-5797
▁我真係	-5798
▁知唔知	-5799
會去	-5800
奧斯	-5801
▁外國	-5802
扭曲	-5803
真是	-5804
面具	-5805
=27	-5806
有咩好	-5807
累積	-5808
包容	-5809
呢次	-5810
唔準	-5811
文學	-5812
場面	-5813
都好撚	-5814
先後	-5815
中伏	-5816
註定	-5817
師奶	-5818
企係	-5819
賣港	-5820
我做	-5821
衰過	-5822
發洩	-5823
結咗	-5824
次次都	-5825
即將	-5826
議院	-5827
內政	-5828
深刻	-5829
無綫	-5830
▁咁佢	-5831
▁教	-5832
▁唔好再	-5833
振英	-5834
儘管	-5835
2/	-5836
==	-5837
識唔識	-5838
柒婆	-5839
呢啲嘢	-5840
抽水	-5841
繼承	-5842
先嚟	-5843
咁款	-5844
差別	-5845
國籍	-5846
陷入	-5847
一直都	-5848
用得	-5849
黑衣	-5850
一事	-5851
路士	-5852
流浪	-5853
幾多錢	-5854
近排	-5855
嘅女	-5856
開工	-5857
搵工	-5858
騷擾	-5859
就即刻	-5860
但都	-5861
都冇咩	-5862
▁就好似	-5863
好差	-5864
報仇	-5865
應用	-5866
指責	-5867
我地要	-5868
無分別	-5869
個字	-5870
▁我無	-5871
我咁	-5872
授權	-5873
="27	-5874
醫學	-5875
起上嚟	-5876
通訊	-5877
其次	-5878
商品	-5879
每一	-5880
》、《	-5881
踢到	-5882
▁你講	-5883
嘅生活	-5884
民生	-5885
引述	-5886
咁少	-5887
火箭	-5888
幾分鐘	-5889
移交	-5890
日日都	-5891
▁簡單	-5892
地地	-5893
最大嘅	-5894
用手	-5895
性別	-5896
更是	-5897
對此	-5898
妻子	-5899
潛水	-5900
㗎喇	-5901
▁藍	-5902
▁G	-5903
會比	-5904
一嚟	-5905
話事	-5906
學位	-5907
濫用	-5908
▁聽講	-5909
果場	-5910
支那狗	-5911
▁相信	-5912
57	-5913
。19	-5914
果堆	-5915
聖經	-5916
▁至少	-5917
公正	-5918
名義	-5919
辦事	-5920
隻字	-5921
一腳	-5922
上週	-5923
救援	-5924
民主自由	-5925
一大堆	-5926
提議	-5927
▁手	-5928
你是	-5929
都差唔多	-5930
不應	-5931
適當	-5932
▁你哋	-5933
做運動	-5934
也要	-5935
劏房	-5936
一樣咁	-5937
中國大陸	-5938
▁點會	-5939
港隊	-5940
科興	-5941
平行	-5942
係佢地	-5943
咁多位	-5944
義務	-5945
▁送	-5946
諗清楚	-5947
留意到	-5948
運氣	-5949
預告	-5950
靠自己	-5951
▁拍	-5952
瑞士	-5953
陰謀	-5954
中國政府	-5955
ro	-5956
銀包	-5957
賠償	-5958
咗出嚟	-5959
印象中	-5960
▁如果真係	-5961
身後	-5962
聽朝	-5963
都死	-5964
頻道	-5965
戀愛	-5966
設立	-5967
起底	-5968
呢邊	-5969
但冇	-5970
如果佢	-5971
接著	-5972
08	-5973
聚集	-5974
拎返	-5975
麵包	-5976
好咗	-5977
投訴你	-5978
短時間	-5979
有趣	-5980
觀念	-5981
▁屌你老味	-5982
各區	-5983
阿根廷	-5984
撚埋	-5985
點頭	-5986
問過	-5987
▁一定	-5988
會出	-5989
效率	-5990
百分	-5991
三人	-5992
嘅歌	-5993
個問題	-5994
自己友	-5995
▁現實	-5996
校方	-5997
間野	-5998
推進	-5999
大哥	-6000
好了	-6001
爬山	-6002
▁R	-6003
▁龍	-6004
係咪有	-6005
有咩事	-6006
360	-6007
心靈	-6008
指引	-6009
設備	-6010
正常常	-6011
都贏	-6012
吓半場	-6013
都有啲	-6014
▁比人	-6015
會再	-6016
自卑	-6017
搭巴士	-6018
▁點解要	-6019
拯救	-6020
更大	-6021
罪名	-6022
▁呢排	-6023
入邊	-6024
有邊個	-6025
停咗	-6026
天才	-6027
▁2)	-6028
古力	-6029
海軍	-6030
派錢	-6031
心理準備	-6032
的工作	-6033
憲法	-6034
跟你	-6035
us	-6036
我屌你老母	-6037
▁洗	-6038
去搵	-6039
森林	-6040
受歡迎	-6041
望到	-6042
係咪可以	-6043
飲酒	-6044
都無咩	-6045
學到	-6046
小學生	-6047
▁過咗	-6048
讓人	-6049
三角	-6050
阿拉	-6051
想搵	-6052
叫人唔好	-6053
71	-6054
相機	-6055
全香港	-6056
單嘢	-6057
玩緊	-6058
返起	-6059
情願	-6060
係得	-6061
深度	-6062
助理	-6063
女權	-6064
暴政	-6065
話咩	-6066
憑咩	-6067
初步	-6068
太過	-6069
控罪	-6070
▁無人	-6071
可以做到	-6072
班垃圾	-6073
▁抽	-6074
陪審	-6075
意味	-6076
/6	-6077
都成	-6078
全部人	-6079
成果	-6080
▁升	-6081
初期	-6082
其實都係	-6083
分配	-6084
追到	-6085
個大	-6086
▁事實上	-6087
就會有	-6088
....」	-6089
㗎喎	-6090
沒有人	-6091
個市	-6092
▁帶	-6093
驚喜	-6094
角大	-6095
外星	-6096
封關	-6097
入到去	-6098
黃大仙	-6099
演技	-6100
舊水	-6101
▁都唔知	-6102
又一	-6103
自願	-6104
(),	-6105
威力	-6106
私隱	-6107
向上	-6108
增值	-6109
屈機	-6110
智能	-6111
中英	-6112
已被	-6113
收購	-6114
▁以上	-6115
局勢	-6116
2013	-6117
丈夫	-6118
鑽石	-6119
走廊	-6120
高等	-6121
▁九	-6122
佢已經	-6123
▁我無野講	-6124
偷食	-6125
▁講緊	-6126
人血	-6127
世上	-6128
港股	-6129
用力	-6130
會令	-6131
瞓教	-6132
第一時間	-6133
監控	-6134
▁拿	-6135
嘅行為	-6136
加盟	-6137
受訪	-6138
唔成	-6139
或是	-6140
佔中	-6141
好嗎	-6142
區嘅	-6143
想食	-6144
判刑	-6145
唔知佢	-6146
63	-6147
689	-6148
929	-6149
性質	-6150
說不	-6151
贊成	-6152
▁波	-6153
續約	-6154
俾佢地	-6155
閱讀	-6156
老實實	-6157
有兩個	-6158
呀屌你老母	-6159
無敵	-6160
的確係	-6161
好嬲	-6162
專門	-6163
執著	-6164
答應	-6165
飯食	-6166
否定	-6167
超市	-6168
跑步	-6169
女主	-6170
講笑	-6171
?(	-6172
之內	-6173
有時間	-6174
▁牛	-6175
放學	-6176
室內	-6177
全程	-6178
買賣	-6179
嘉賓	-6180
成點	-6181
使唔使	-6182
呢點	-6183
到一	-6184
職位	-6185
星期六日	-6186
對白	-6187
唔係你	-6188
另一方面	-6189
買入	-6190
又再	-6191
20%	-6192
▁信	-6193
功夫	-6194
嘅你	-6195
先入	-6196
兩隊	-6197
不反對通知書	-6198
衣服	-6199
將佢	-6200
摩佬	-6201
隊伍	-6202
知名	-6203
2010	-6204
缺一不可	-6205
發生過	-6206
有種	-6207
次數	-6208
在地上	-6209
朱古力	-6210
不大	-6211
五星	-6212
跟我	-6213
場地	-6214
象徵	-6215
高位	-6216
呢啲野	-6217
操控	-6218
吸收	-6219
▁嚟緊	-6220
媽咪	-6221
學費	-6222
區議會選舉	-6223
撐警	-6224
某個	-6225
英格蘭	-6226
最愛	-6227
三大	-6228
誠實	-6229
52	-6230
▁最多	-6231
交稅	-6232
他是	-6233
去臺灣	-6234
又好似	-6235
▁鬼	-6236
▁唔使	-6237
白卡	-6238
要佢	-6239
千蚊	-6240
大叔	-6241
身處	-6242
1999	-6243
好友	-6244
53	-6245
▁雙	-6246
顧問	-6247
電視劇	-6248
史上	-6249
文革	-6250
教育局	-6251
聽吓	-6252
可怕	-6253
1200	-6254
▁然而	-6255
都可能	-6256
要我	-6257
唔值	-6258
港臺	-6259
▁只不過	-6260
體會	-6261
～」	-6262
飲水	-6263
嘅國家	-6264
食藥	-6265
因為咁	-6266
ac	-6267
▁主	-6268
▁事	-6269
港大	-6270
▁今集	-6271
▁我淨係	-6272
最有	-6273
戰力	-6274
中招	-6275
做個	-6276
的機會	-6277
金牌	-6278
運用	-6279
金額	-6280
限定	-6281
係黃	-6282
咁遠	-6283
唔知係咪	-6284
隱藏	-6285
獎勵	-6286
私家車	-6287
大戶	-6288
舖頭	-6289
驚訝	-6290
伊斯蘭	-6291
並唔係	-6292
咗少少	-6293
簽署	-6294
狗公	-6295
空中	-6296
留係	-6297
都未有	-6298
還在	-6299
連接	-6300
尊嚴	-6301
底褲	-6302
如果我	-6303
好聽	-6304
哈利	-6305
得上	-6306
可以再	-6307
1-2	-6308
個世界	-6309
▁你有	-6310
雲加	-6311
射波	-6312
特定	-6313
下跌	-6314
游水	-6315
眼光	-6316
才會	-6317
▁因為我	-6318
煩惱	-6319
送院	-6320
高地	-6321
紅磡	-6322
係一種	-6323
人性	-6324
樂壇	-6325
帶頭	-6326
大事	-6327
食煙	-6328
同大家	-6329
嘅男人	-6330
大阪	-6331
尋求	-6332
講佢	-6333
情感	-6334
筆錢	-6335
部電話	-6336
一律	-6337
費事	-6338
時光	-6339
十分鐘	-6340
功能組別	-6341
你用	-6342
港幣	-6343
應該都	-6344
快手	-6345
到香港	-6346
星期三	-6347
太高	-6348
字眼	-6349
幾大	-6350
昨晚	-6351
沙士	-6352
自己去	-6353
害人	-6354
▁今朝	-6355
離地	-6356
比亞	-6357
ain	-6358
重申	-6359
比咗	-6360
天佑	-6361
想像中	-6362
都唔算	-6363
的新	-6364
▁點樣	-6365
現任	-6366
▁曾	-6367
講乜	-6368
林奠	-6369
不變	-6370
,200	-6371
應該都係	-6372
豐富	-6373
個禮拜	-6374
會繼續	-6375
死得	-6376
顯得	-6377
隨後	-6378
自首	-6379
長大	-6380
▁我都想	-6381
條撚	-6382
下野	-6383
瑞典	-6384
陽光	-6385
等同	-6386
人一	-6387
跟著	-6388
行吓	-6389
▁祝	-6390
專注	-6391
都比人	-6392
人唔	-6393
落水	-6394
it	-6395
管理層	-6396
損害	-6397
▁一路	-6398
好簡單	-6399
:2	-6400
咋嘛	-6401
▁我反而	-6402
夾埋	-6403
收貨	-6404
同朋友	-6405
票站	-6406
做得好	-6407
低調	-6408
嗰句	-6409
外交部	-6410
你有冇	-6411
無恥	-6412
解答	-6413
得好好	-6414
41	-6415
幾多個	-6416
我認為	-6417
人氣	-6418
推廣	-6419
嘔心	-6420
突擊	-6421
詳情	-6422
好多次	-6423
轉變	-6424
報名	-6425
仔細	-6426
位數	-6427
▁試吓	-6428
食住	-6429
▁而係	-6430
準確	-6431
▁希望大家	-6432
講大話	-6433
會變	-6434
選區	-6435
▁純粹	-6436
報復	-6437
奶茶	-6438
▁還	-6439
伴侶	-6440
完全係	-6441
膊頭	-6442
都在	-6443
人心	-6444
=30	-6445
之力	-6446
我搵律師	-6447
介入	-6448
分店	-6449
大規模	-6450
▁相反	-6451
▁我已經	-6452
各大	-6453
平常	-6454
十年前	-6455
係咪應該	-6456
▁咪撚	-6457
動漫	-6458
人們	-6459
死嘅	-6460
間諜	-6461
馬來西亞	-6462
外表	-6463
好返	-6464
打破	-6465
土耳	-6466
全體	-6467
領土	-6468
呢一刻	-6469
不幸	-6470
▁當初	-6471
一開波	-6472
傳來	-6473
下水	-6474
希臘	-6475
保護自己	-6476
榮光	-6477
錄得	-6478
▁小弟	-6479
又唔撚	-6480
大機會	-6481
投資者	-6482
有巴打	-6483
浪漫	-6484
走佬	-6485
官網	-6486
就到	-6487
銷售	-6488
我只係	-6489
▁從來	-6490
5%	-6491
默默	-6492
供樓	-6493
個句	-6494
半日	-6495
.0	-6496
唔撚到	-6497
迫害	-6498
過一次	-6499
陰影	-6500
非禮	-6501
引入	-6502
收返	-6503
生涯	-6504
阿哥	-6505
四大	-6506
手續費	-6507
愛佢	-6508
82	-6509
題目	-6510
的原因	-6511
放手	-6512
係喺	-6513
年開始	-6514
▁你睇	-6515
呢幾年	-6516
陳同佳	-6517
唔好凶	-6518
一齊去	-6519
)(	-6520
一眾	-6521
慣咗	-6522
眼見	-6523
佢仲	-6524
走曬	-6525
前排	-6526
有幾多人	-6527
都仲未	-6528
▁今場	-6529
過程中	-6530
左腳	-6531
▁//	-6532
▁依加	-6533
吓的	-6534
帶住	-6535
減肥	-6536
佢無	-6537
難聽	-6538
本事	-6539
旅客	-6540
足以	-6541
人嚟	-6542
安全感	-6543
都好多	-6544
專輯	-6545
乜事	-6546
係對	-6547
走位	-6548
震撼	-6549
截至	-6550
埃及	-6551
人都知	-6552
點打	-6553
會咁	-6554
土耳其	-6555
焦點	-6556
係覺得	-6557
▁尋晚	-6558
▁飛	-6559
同期	-6560
隨機	-6561
又唔知	-6562
接收	-6563
係比	-6564
▁formula	-6565
要買	-6566
門檻	-6567
唔曬	-6568
上陣	-6569
彼此	-6570
票房	-6571
衞生	-6572
男生	-6573
數啦	-6574
我唔解鎖我搵律師	-6575
你知	-6576
不太	-6577
這位	-6578
浪費時間	-6579
毛澤	-6580
阻礙	-6581
冒險	-6582
一項	-6583
吓我	-6584
招呼	-6585
ol	-6586
密碼	-6587
唔一定	-6588
減低	-6589
其實我	-6590
你咁講	-6591
/11/2019	-6592
已經開始	-6593
叫咩	-6594
汽油	-6595
極限	-6596
社會主義	-6597
難食	-6598
簽咗	-6599
是非	-6600
標籤	-6601
有好	-6602
用來	-6603
俾人拉	-6604
宣言	-6605
先發現	-6606
士兵	-6607
老屈	-6608
et	-6609
協調	-6610
▁樓上	-6611
應該可以	-6612
套劇	-6613
明年	-6614
="30	-6615
廣泛	-6616
我我投訴你	-6617
所以要	-6618
政見	-6619
路上	-6620
小粉紅	-6621
基層	-6622
打爆	-6623
比大家	-6624
▁係囉	-6625
激進	-6626
讀緊	-6627
▁佢個	-6628
匯豐	-6629
編號	-6630
低過	-6631
商人	-6632
係街	-6633
▁其實我覺得	-6634
但唔係	-6635
毛澤東	-6636
多啲人	-6637
天文臺	-6638
1997	-6639
▁係唔係	-6640
幾點	-6641
係連登	-6642
哂啲	-6643
天花	-6644
是有	-6645
我以為	-6646
▁蘇	-6647
▁收皮啦	-6648
▁留名	-6649
進口	-6650
用的	-6651
嘅咪	-6652
打法	-6653
羨慕	-6654
陣容	-6655
維尼	-6656
進黨	-6657
起咗	-6658
▁下	-6659
好多嘢	-6660
昨天	-6661
牛肉	-6662
誤導	-6663
都係睇	-6664
講嘅野	-6665
共狗	-6666
粉嶺	-6667
億人	-6668
起訴	-6669
生態	-6670
比較好	-6671
一望	-6672
過關	-6673
美好	-6674
受影響	-6675
生死	-6676
曬所有	-6677
陸續	-6678
唔好講	-6679
曬佢	-6680
萬蚊	-6681
人好	-6682
做愛	-6683
唔好凶我我投訴你	-6684
十六	-6685
做嘅野	-6686
第日	-6687
蛋白	-6688
暑假	-6689
受害人	-6690
無需	-6691
幼稚園	-6692
開車	-6693
川普	-6694
返自己	-6695
流血	-6696
十三	-6697
途徑	-6698
見到你	-6699
▁我無野講我唔解鎖我搵律師	-6700
▁韓國	-6701
傳單	-6702
吓星期	-6703
我唔想	-6704
認證	-6705
數碼	-6706
入面有	-6707
道具	-6708
6-	-6709
發脾氣	-6710
半個	-6711
塞車	-6712
一分	-6713
做出	-6714
4,	-6715
整理	-6716
輸波	-6717
太多人	-6718
時的	-6719
老虎	-6720
過的	-6721
一眼	-6722
▁楊	-6723
冷氣軍師	-6724
不分	-6725
紀律部隊	-6726
放火	-6727
做乜撚	-6728
身高	-6729
上班	-6730
都難	-6731
發布	-6732
▁好耐	-6733
激烈	-6734
流出	-6735
已經冇	-6736
都有機會	-6737
un	-6738
障礙	-6739
ing	-6740
▁鄭	-6741
專科	-6742
永祥	-6743
輕易	-6744
不對	-6745
陣地	-6746
成個人	-6747
▁嚇	-6748
番個	-6749
裁判法院	-6750
都似	-6751
陪你	-6752
▁藍絲	-6753
黎明行動	-6754
就在	-6755
條約	-6756
嘅香港人	-6757
唔聽	-6758
的方法	-6759
人羣	-6760
了我	-6761
誠哥	-6762
拎出嚟	-6763
射手	-6764
國務	-6765
朝鮮	-6766
中東	-6767
一部份	-6768
老實講	-6769
修正	-6770
港紙	-6771
▁加油	-6772
世代	-6773
感激	-6774
黑白	-6775
有錢佬	-6776
處長	-6777
可能要	-6778
叔叔	-6779
而加	-6780
行程	-6781
我問	-6782
數值	-6783
到一個	-6784
到要	-6785
就做	-6786
鞍山	-6787
基督教	-6788
▁女性	-6789
▁望	-6790
濫權	-6791
為人	-6792
的政治	-6793
110	-6794
悟空	-6795
體諒	-6796
一二	-6797
就真	-6798
兩個鐘	-6799
紛紛	-6800
▁屌佢老母	-6801
足球員	-6802
年青人	-6803
都無乜	-6804
遇上	-6805
多謝你	-6806
尤其係	-6807
無腦	-6808
柒咗	-6809
恐怖分子	-6810
上午	-6811
情節	-6812
試圖	-6813
唔好話	-6814
去玩	-6815
女團	-6816
/9	-6817
多隻	-6818
發射	-6819
子的	-6820
蜘蛛	-6821
同佢一齊	-6822
大頭	-6823
果間	-6824
監管	-6825
平靜	-6826
▁有得	-6827
嘅意思	-6828
口中	-6829
說是	-6830
一層	-6831
十月	-6832
唔玩	-6833
香港人權	-6834
買家	-6835
逆轉	-6836
成堆	-6837
像是	-6838
完就	-6839
▁艾	-6840
住咗	-6841
掙扎	-6842
▁要求	-6843
有隻	-6844
提交	-6845
聯網	-6846
有位	-6847
效應	-6848
密切	-6849
截止	-6850
殖民地	-6851
都幾好	-6852
坦克	-6853
題材	-6854
可以話	-6855
波衫	-6856
頂級	-6857
講錯	-6858
▁麥	-6859
耐性	-6860
審訊	-6861
▁計	-6862
支爆	-6863
可以咁	-6864
▁一般	-6865
▁返工	-6866
一到	-6867
恐襲	-6868
▁相關	-6869
十四	-6870
完善	-6871
惡魔	-6872
結咗婚	-6873
吸血	-6874
希望你	-6875
單止	-6876
嘢食	-6877
有三	-6878
唔怪得	-6879
的關係	-6880
呢兩個	-6881
控制唔到	-6882
就買	-6883
紐約	-6884
咩係	-6885
天空	-6886
羽毛	-6887
親身	-6888
攻勢	-6889
解決問題	-6890
民進黨	-6891
丁堡	-6892
推上	-6893
=10	-6894
係講緊	-6895
一笑	-6896
屌緊	-6897
7-	-6898
女主角	-6899
▁法	-6900
西鐵	-6901
▁師兄	-6902
返出嚟	-6903
士尼	-6904
理會	-6905
900	-6906
▁你個	-6907
呢個位	-6908
也沒	-6909
超人	-6910
▁絲打	-6911
邊啲	-6912
="18	-6913
▁我冇	-6914
活躍	-6915
時許	-6916
性侵	-6917
地理	-6918
正正常常	-6919
預算	-6920
唔關事	-6921
勾結	-6922
越多	-6923
▁德國	-6924
草案	-6925
▁如果我	-6926
有次	-6927
為你	-6928
到好似	-6929
好波	-6930
▁D	-6931
問人	-6932
免疫	-6933
面臨	-6934
到啦	-6935
落地獄	-6936
人仔	-6937
給你	-6938
自覺	-6939
企出嚟	-6940
▁又唔係	-6941
▁嚟	-6942
社運	-6943
▁我只係	-6944
國際社會	-6945
日本仔	-6946
動機	-6947
▁甚至	-6948
▁記住	-6949
個人資料	-6950
只見	-6951
咋喎	-6952
▁好難	-6953
溫度	-6954
月頭	-6955
正路	-6956
環球	-6957
▁上網	-6958
冚家剷	-6959
之上	-6960
繼續做	-6961
蔡英文	-6962
不禁	-6963
▁你唔係	-6964
向我	-6965
咪係	-6966
培養	-6967
你會唔會	-6968
▁世界	-6969
白票	-6970
嘅分別	-6971
咁多錢	-6972
紙巾	-6973
送到	-6974
▁已	-6975
▁F	-6976
各有各做	-6977
鬥爭	-6978
係好事	-6979
賽後	-6980
無忌	-6981
有班	-6982
要靠	-6983
幾十萬	-6984
字幕	-6985
溫書	-6986
牀上	-6987
我都覺得	-6988
中山	-6989
迪士尼	-6990
大使	-6991
姜濤	-6992
馬拉	-6993
係大陸	-6994
商店	-6995
落手	-6996
讓他	-6997
都俾	-6998
本月	-6999
雞蛋	-7000
智力	-7001
正視	-7002
點搞	-7003
儲錢	-7004
飛行	-7005
一轉	-7006
問到	-7007
同中國	-7008
同年	-7009
國泰	-7010
▁唔好意思	-7011
咩料	-7012
哥狗	-7013
▁半	-7014
="10	-7015
呀呀	-7016
異常	-7017
零售	-7018
▁經過	-7019
東南亞	-7020
起了	-7021
不死	-7022
特徵	-7023
讀完	-7024
出唔到	-7025
勇敢	-7026
行李	-7027
=18	-7028
留名	-7029
紋身	-7030
有其他	-7031
成效	-7032
▁我唔係	-7033
水炮	-7034
呢隊	-7035
係正常	-7036
2011	-7037
低質	-7038
對眼	-7039
政府的	-7040
先買	-7041
腐敗	-7042
深夜	-7043
月份	-7044
間間	-7045
香港市民	-7046
早期	-7047
眼瞓	-7048
試下	-7049
▁我好	-7050
就睇	-7051
捍衛	-7052
▁1)	-7053
(;	-7054
預言	-7055
=12	-7056
車位	-7057
公立	-7058
換人	-7059
▁法國	-7060
▁說	-7061
▁哇	-7062
▁八	-7063
見到個	-7064
博物	-7065
唔到佢	-7066
配音	-7067
巴士站	-7068
認錯	-7069
待遇	-7070
書面	-7071
具有	-7072
都試過	-7073
害死	-7074
如果真係	-7075
自主	-7076
▁分分鐘	-7077
▁六	-7078
:$1,	-7079
="12	-7080
儲蓄	-7081
去外國	-7082
吓半	-7083
聽講	-7084
她說	-7085
▁心	-7086
怪物	-7087
業績	-7088
抵抗	-7089
流水	-7090
出來的	-7091
打去	-7092
喪屍	-7093
▁廢	-7094
大清	-7095
中途	-7096
元氣	-7097
男主角	-7098
▁電	-7099
▁一個人	-7100
已經無	-7101
落海	-7102
佢地會	-7103
再度	-7104
▁警察	-7105
覺得你	-7106
兩球	-7107
分化撚	-7108
西裝	-7109
譚仔	-7110
嘅女人	-7111
皇家	-7112
0/	-7113
及其	-7114
▁返	-7115
軍人	-7116
就業	-7117
罰款	-7118
食緊	-7119
後衛	-7120
=13	-7121
改為	-7122
災難	-7123
作家	-7124
散水	-7125
車輛	-7126
都唔係好	-7127
▁「(	-7128
有條	-7129
得知	-7130
奇蹟	-7131
家吓	-7132
打交	-7133
有機	-7134
正苦	-7135
▁你班	-7136
教你	-7137
貨車	-7138
嘅日子	-7139
諷刺	-7140
施政	-7141
月臺	-7142
合適	-7143
很好	-7144
一集	-7145
悼念	-7146
惡意	-7147
自發	-7148
典型	-7149
可以同	-7150
年香港	-7151
上手	-7152
在港	-7153
引用	-7154
一輪	-7155
意甲	-7156
提示	-7157
遍地	-7158
神奇	-7159
曬啦	-7160
永不	-7161
單獨	-7162
獨立調查委員會	-7163
兩種	-7164
厲害	-7165
資本主義	-7166
回收	-7167
杯葛	-7168
的心	-7169
嘅工	-7170
喺佢	-7171
圍住	-7172
議案	-7173
場合	-7174
再加上	-7175
批判	-7176
洗手	-7177
器官	-7178
因應	-7179
壓迫	-7180
連任	-7181
咗自己	-7182
睇清楚	-7183
民選	-7184
▁竟然	-7185
共有	-7186
嘅垃圾	-7187
香港係	-7188
你先	-7189
國王	-7190
時報	-7191
▁警	-7192
本報訊	-7193
伸手	-7194
前者	-7195
入貨	-7196
李家	-7197
="15	-7198
安樂	-7199
對上	-7200
好多都係	-7201
返轉	-7202
善良	-7203
⋯⋯」	-7204
互動	-7205
加價	-7206
人命	-7207
預備	-7208
很大	-7209
直線	-7210
研發	-7211
呃人	-7212
▁個個都	-7213
幸運	-7214
包含	-7215
都大	-7216
很多人	-7217
打工仔	-7218
不錯	-7219
其實好	-7220
▁盧	-7221
會有人	-7222
••	-7223
▁開始	-7224
間中	-7225
係咪想	-7226
▁果陣	-7227
救命	-7228
風暴	-7229
合彩	-7230
車路士	-7231
讀過	-7232
是什麼	-7233
美國的	-7234
721811	-7235
寫到	-7236
有意	-7237
▁所以話	-7238
唔得閒	-7239
總理	-7240
單單	-7241
揸住	-7242
同性戀	-7243
/4	-7244
最大的	-7245
就屌	-7246
從未	-7247
青瞓	-7248
係啲	-7249
au	-7250
即日	-7251
有幾個	-7252
口講	-7253
叫佢地	-7254
▁又或者	-7255
▁冇錯	-7256
弱點	-7257
青山	-7258
就算啦	-7259
▁花	-7260
都驚	-7261
=15	-7262
親人	-7263
利是	-7264
球星	-7265
野做	-7266
大巴	-7267
應該點	-7268
歌曲	-7269
再見	-7270
就唔知	-7271
覆核	-7272
融入	-7273
身邊嘅人	-7274
挑釁	-7275
頒獎	-7276
嘅角色	-7277
緬甸	-7278
被判	-7279
九龍灣	-7280
親中派	-7281
對準	-7282
▁快	-7283
唔係問題	-7284
之時	-7285
愛丁堡	-7286
▁對唔住	-7287
再睇	-7288
認罪	-7289
唔靚	-7290
去去	-7291
大國	-7292
大陸仔	-7293
豆腐	-7294
傳出	-7295
有沒有	-7296
▁係香港	-7297
時間去	-7298
專業人士	-7299
冇錯	-7300
咁巖	-7301
九龍城	-7302
撚事咩	-7303
有力	-7304
儀式	-7305
有冇諗過	-7306
啟動	-7307
爆料	-7308
因為有	-7309
梁振英	-7310
現今	-7311
都知道	-7312
▁考	-7313
主觀	-7314
呢招	-7315
留守	-7316
提過	-7317
正皮	-7318
高中	-7319
熱情	-7320
就算係	-7321
天然	-7322
真係得	-7323
宣誓	-7324
公告	-7325
唔係比你	-7326
特權	-7327
全職	-7328
而家嘅	-7329
▁今季	-7330
大大力	-7331
太耐	-7332
沙拿	-7333
.........	-7334
人打	-7335
見證	-7336
▁我唔	-7337
百年	-7338
齊齊	-7339
▁W	-7340
星期二	-7341
蝗蟲	-7342
陳雲	-7343
當事	-7344
當下	-7345
綜援	-7346
魔女	-7347
▁於是	-7348
則是	-7349
有料	-7350
通道	-7351
正經	-7352
話你知	-7353
同屋企人	-7354
就比	-7355
到爆	-7356
升咗	-7357
疑犯	-7358
▁我都有	-7359
大啲	-7360
6000	-7361
召集	-7362
我和	-7363
要比	-7364
司長	-7365
的方式	-7366
人之	-7367
食個	-7368
腦海	-7369
句話	-7370
禁制	-7371
999	-7372
到呢	-7373
正當	-7374
點點點	-7375
學生會	-7376
局局長	-7377
搜查	-7378
工資	-7379
毀滅	-7380
等級	-7381
首抽	-7382
十足	-7383
開嘅	-7384
▁石	-7385
上盤	-7386
放係	-7387
樂園	-7388
好玩	-7389
最好嘅	-7390
tion	-7391
▁最重要	-7392
1:	-7393
細細	-7394
當晚	-7395
」,「	-7396
03	-7397
裁定	-7398
該名	-7399
絕不	-7400
雪糕	-7401
世界級	-7402
一秒	-7403
幕後	-7404
或以上	-7405
▁我就係	-7406
七年	-7407
做狗	-7408
收視	-7409
▁咪就係	-7410
可樂	-7411
部長	-7412
感覺到	-7413
不夠	-7414
報案	-7415
我打	-7416
▁千	-7417
所在	-7418
倒數	-7419
口供	-7420
局面	-7421
月費	-7422
虐待	-7423
▁主要	-7424
右腳	-7425
過夜	-7426
南京	-7427
和勇	-7428
曝光	-7429
大家嘅	-7430
模擬	-7431
說的	-7432
煲底	-7433
鄰居	-7434
睇唔起	-7435
唔合理	-7436
果套	-7437
西藏	-7438
點都會	-7439
新增	-7440
差異	-7441
熱帶	-7442
階層	-7443
好用	-7444
手套	-7445
有無得	-7446
狗衝	-7447
快過	-7448
收到風	-7449
葡萄牙	-7450
住公屋	-7451
我再	-7452
▁算	-7453
而非	-7454
大家要	-7455
聽完	-7456
兄弟爬山	-7457
咁貴	-7458
獨特	-7459
▁永遠	-7460
一餐	-7461
有任何	-7462
話過	-7463
恐怕	-7464
出到嚟	-7465
同伴	-7466
診所	-7467
出錢	-7468
賣廣告	-7469
▁剩係	-7470
我之前	-7471
▁做咩	-7472
▁又唔	-7473
報應	-7474
兇手	-7475
升幅	-7476
嗰吓	-7477
魚蛋	-7478
高普	-7479
▁明知	-7480
▁今時今日	-7481
地底	-7482
好講	-7483
鼓吹	-7484
收得	-7485
仲有得	-7486
天地	-7487
走咗去	-7488
堅決	-7489
身體健康	-7490
▁最尾	-7491
唔高	-7492
五個	-7493
唔好用	-7494
om	-7495
人都係	-7496
學會	-7497
騰訊	-7498
兩粒	-7499
疑問	-7500
分組	-7501
交收	-7502
更衣	-7503
很難	-7504
博物館	-7505
▁光	-7506
不僅	-7507
賓周	-7508
認清	-7509
某些	-7510
咁佢	-7511
失誤	-7512
贏家	-7513
▁傻	-7514
▁實	-7515
途中	-7516
▁踢	-7517
過度	-7518
=35	-7519
發展商	-7520
勞動	-7521
遵守	-7522
契弟	-7523
1001	-7524
沙灣	-7525
上落	-7526
此時	-7527
170	-7528
休班	-7529
潛力	-7530
最後都係	-7531
捉住	-7532
首都	-7533
由細到大	-7534
心想	-7535
=25	-7536
▁聽到	-7537
一部分	-7538
用戶	-7539
贊助	-7540
唔熟	-7541
因而	-7542
返入	-7543
▁中國人	-7544
嘅情況吓	-7545
中銀	-7546
大批	-7547
▁公司	-7548
仍未	-7549
得人	-7550
兩樣	-7551
嘅心態	-7552
大選	-7553
▁你又	-7554
兩國	-7555
=28	-7556
廖永祥	-7557
死了	-7558
賽季	-7559
識人	-7560
▁發現	-7561
安裝	-7562
事故	-7563
迅速	-7564
係咪會	-7565
▁扮	-7566
傷人	-7567
▁你想	-7568
屌我	-7569
玩野	-7570
諗野	-7571
咗一個	-7572
部車	-7573
權益	-7574
▁寧願	-7575
講到明	-7576
世人	-7577
就變	-7578
強迫	-7579
防禦	-7580
▁個陣	-7581
電單車	-7582
唔知咩	-7583
鍾意佢	-7584
大跌	-7585
▁我睇	-7586
▁外	-7587
政府嘅	-7588
攬住	-7589
而出	-7590
肯定係	-7591
用盡	-7592
都同	-7593
斯特	-7594
我所	-7595
鹹濕	-7596
酒吧	-7597
▁呢個世界	-7598
強硬	-7599
行路	-7600
証明	-7601
隊員	-7602
它們	-7603
頭部	-7604
嚟啦	-7605
押後	-7606
症狀	-7607
開戰	-7608
要走	-7609
人才	-7610
回去	-7611
成條	-7612
雜誌	-7613
大門	-7614
科學家	-7615
過香港	-7616
淺黃	-7617
講返	-7618
尼馬	-7619
被指	-7620
▁夠	-7621
施壓	-7622
老野	-7623
▁勁	-7624
重傷	-7625
="13	-7626
手臂	-7627
幾時先	-7628
de	-7629
北角	-7630
入行	-7631
番屋企	-7632
▁有次	-7633
▁中學	-7634
▁係咁	-7635
即是	-7636
投票率	-7637
="35	-7638
津貼	-7639
一臉	-7640
出返嚟	-7641
本身就係	-7642
吹雞	-7643
="28	-7644
▁泛民	-7645
係真係	-7646
又唔想	-7647
又唔洗	-7648
現有	-7649
不推文	-7650
信號	-7651
狗咁	-7652
就得啦	-7653
人血饅頭	-7654
放到	-7655
半島	-7656
抗拒	-7657
油麻	-7658
霸氣	-7659
感冒	-7660
散播	-7661
版權	-7662
關閉	-7663
3-4	-7664
▁我想問	-7665
▁我而家	-7666
生效	-7667
本身係	-7668
辯論	-7669
好多都	-7670
管有	-7671
返回	-7672
真正的	-7673
講埋	-7674
全隊	-7675
在中國	-7676
要同	-7677
▁勇武	-7678
重量	-7679
書院	-7680
▁他們	-7681
多幾次	-7682
全新	-7683
不願	-7684
無理	-7685
後嘅	-7686
唔清楚	-7687
都係一個	-7688
頭痛	-7689
出得	-7690
前的	-7691
單一	-7692
做啦	-7693
心目中	-7694
臉上	-7695
將自己	-7696
▁路	-7697
走出嚟	-7698
九巴	-7699
唱片	-7700
會話	-7701
三國	-7702
新冠	-7703
趕走	-7704
睇人	-7705
梁天琦	-7706
職務	-7707
財務	-7708
下臺	-7709
合照	-7710
忽略	-7711
用錢	-7712
一撚樣	-7713
(#	-7714
吓季	-7715
上線	-7716
咁玩膠	-7717
睇嘅	-7718
都開始	-7719
用佢	-7720
享有	-7721
子華	-7722
係未	-7723
搖頭	-7724
唔撚係	-7725
市中心	-7726
可言	-7727
行先	-7728
大愛	-7729
我而家	-7730
太太	-7731
中二	-7732
魔力	-7733
te	-7734
醒目	-7735
可能是	-7736
▁吳	-7737
班撚樣拎嚟	-7738
▁七	-7739
▁女性議員	-7740
班撚樣拎嚟咁玩膠	-7741
▁女性議員唔係比你	-7742
▁屯門	-7743
管制	-7744
唔到你	-7745
美方	-7746
黃圈	-7747
又點會	-7748
▁相關新聞	-7749
如下	-7750
係我地	-7751
乞衣	-7752
資深	-7753
隱瞞	-7754
會影響	-7755
解決到	-7756
都去	-7757
嘅位	-7758
準則	-7759
老竇	-7760
-20	-7761
在一起	-7762
▁差	-7763
賣咗	-7764
唔公平	-7765
邊個係	-7766
一蚊	-7767
有邊	-7768
引導	-7769
荒謬	-7770
攻擊性	-7771
唔記得咗	-7772
理工	-7773
大鑊	-7774
就同	-7775
有錯	-7776
="25	-7777
偷拍	-7778
擁抱	-7779
票數	-7780
8000	-7781
致命	-7782
貸款	-7783
笑道	-7784
啲啦	-7785
都買	-7786
先進	-7787
昏迷	-7788
稱呼	-7789
唔清	-7790
孤獨	-7791
▁似	-7792
加快	-7793
阿爸	-7794
都係好	-7795
造星	-7796
隻馬	-7797
‧‧‧‧	-7798
身型	-7799
自問	-7800
方法可以	-7801
櫻花	-7802
門外	-7803
揀咗	-7804
一舊	-7805
62	-7806
反思	-7807
自豪	-7808
太遲	-7809
收回	-7810
有女	-7811
▁知道	-7812
▁3)	-7813
▁仲未	-7814
的樣子	-7815
出個	-7816
手中	-7817
得去邊	-7818
一戰	-7819
僱主	-7820
呀屌	-7821
之後嘅	-7822
呢單野	-7823
歷史上	-7824
執到	-7825
希望可以	-7826
根本唔係	-7827
侵略	-7828
官司	-7829
▁風	-7830
提起	-7831
▁而唔係	-7832
終身	-7833
消費者	-7834
為甚麼	-7835
優點	-7836
會面	-7837
過海	-7838
$18	-7839
請教	-7840
二戰	-7841
國家的	-7842
都係靠	-7843
年尾	-7844
不但	-7845
▁莫	-7846
佢對	-7847
簽約	-7848
大律師	-7849
▁雷	-7850
唔贏	-7851
意願	-7852
拳頭	-7853
五月	-7854
你對	-7855
永續	-7856
自衛	-7857
開唔到	-7858
拉咗	-7859
編輯	-7860
襲警	-7861
請人	-7862
二百	-7863
判決	-7864
把撚	-7865
拍咗	-7866
我屋企	-7867
笑鳩	-7868
會上	-7869
-10	-7870
在這裡	-7871
建築物	-7872
▁我個	-7873
上星期	-7874
▁慢慢	-7875
誠意	-7876
石油	-7877
內戰	-7878
▁贏	-7879
某程度上	-7880
泡菜	-7881
好多人都	-7882
重心	-7883
行出嚟	-7884
殺到	-7885
好似冇	-7886
死曬	-7887
▁對面	-7888
天台	-7889
拉埋	-7890
定定	-7891
白宮	-7892
▁你咪	-7893
▁寫	-7894
果幾	-7895
有著	-7896
美洲	-7897
張牀	-7898
死因	-7899
幾正	-7900
死你	-7901
的不	-7902
惡劣	-7903
唔放	-7904
▁有冇人知	-7905
過得	-7906
160	-7907
幫到你	-7908
根本唔會	-7909
個堆	-7910
夫婦	-7911
點講	-7912
▁發覺	-7913
▁人生	-7914
▁伊	-7915
網頁	-7916
你打	-7917
末日	-7918
ig	-7919
如果要	-7920
上來	-7921
了吧	-7922
名牌	-7923
30%	-7924
第一集	-7925
加咗	-7926
午餐	-7927
猶豫	-7928
肥佬	-7929
軟件	-7930
陪我	-7931
▁因為佢	-7932
咁低	-7933
幫手推	-7934
真係笑	-7935
就代表	-7936
佛教	-7937
副作用	-7938
比喻	-7939
▁s	-7940
原價	-7941
嚟打	-7942
李嘉	-7943
想佢	-7944
學吓	-7945
流感	-7946
▁借	-7947
身分證	-7948
字母	-7949
若果	-7950
時話	-7951
領養	-7952
茶記	-7953
▁有冇諗過	-7954
有講	-7955
▁韓	-7956
更高	-7957
都做到	-7958
商界	-7959
死去	-7960
置頂	-7961
:10	-7962
延續	-7963
了嗎	-7964
是咪	-7965
殺手	-7966
冇嘢	-7967
我地係	-7968
▁元朗	-7969
上半場	-7970
就係你	-7971
甘心	-7972
食埋	-7973
▁好明顯	-7974
去完	-7975
第一步	-7976
都要有	-7977
▁爆	-7978
/5	-7979
▁亞	-7980
大雨	-7981
由頭到尾	-7982
咁差	-7983
太子站	-7984
會同	-7985
都變	-7986
模一樣	-7987
一輩	-7988
▁我都好	-7989
全年	-7990
急救	-7991
連結	-7992
我記得	-7993
一流	-7994
水魚	-7995
140	-7996
識到	-7997
快活	-7998
搵到個	-7999
=26	-8000
下人	-8001
當場	-8002
在他	-8003
能源	-8004
輪姦	-8005
93	-8006
▁港共	-8007
驚佢	-8008
之間的	-8009
油麻地	-8010
▁影	-8011
嘅能力	-8012
麻麻地	-8013
兩件	-8014
▁咁點解	-8015
唔夾	-8016
西哥	-8017
慘過	-8018
▁荃灣	-8019
呢位	-8020
消化	-8021
緊嘅	-8022
證人	-8023
有咁多	-8024
俄佬	-8025
唔搭	-8026
察覺	-8027
求助	-8028
綁架	-8029
下的	-8030
都係一樣	-8031
▁國際	-8032
一提	-8033
前日	-8034
大賽	-8035
就被	-8036
走出	-8037
帶到	-8038
街場	-8039
=33	-8040
2008	-8041
小龍	-8042
▁睇咗	-8043
壞咗	-8044
啤酒	-8045
睇啦	-8046
11.	-8047
上庭	-8048
此刻	-8049
叫春	-8050
但個	-8051
哩個	-8052
就直接	-8053
狗隻	-8054
贏得	-8055
不懂	-8056
六合彩	-8057
兒登仔	-8058
之地	-8059
▁不過佢	-8060
彩虹	-8061
兩星期	-8062
主演	-8063
基佬	-8064
心跳	-8065
▁記者	-8066
其實都	-8067
:9	-8068
嗰陣時	-8069
大問題	-8070
富豪	-8071
無線	-8072
無能	-8073
幫佢地	-8074
寂寞	-8075
意粉	-8076
速龍	-8077
的位置	-8078
="26	-8079
▁超	-8080
凍結	-8081
德甲	-8082
2,3	-8083
▁9.	-8084
今屆	-8085
再打	-8086
藥物	-8087
lt	-8088
份人	-8089
尼斯	-8090
搞到我	-8091
價位	-8092
組隊	-8093
▁搭	-8094
隻野	-8095
係為	-8096
身影	-8097
0000	-8098
個到	-8099
死佢	-8100
唔好彩	-8101
呢堆	-8102
▁俾人	-8103
之所以	-8104
唔少人	-8105
復仇	-8106
我啦	-8107
世界第一	-8108
事發	-8109
波蘭	-8110
好鐘意	-8111
執政	-8112
願望	-8113
逐個	-8114
可以打	-8115
得嘅	-8116
巨大	-8117
魔鬼	-8118
▁點解唔	-8119
壞事	-8120
半夜	-8121
況且	-8122
干涉	-8123
盲目	-8124
終點	-8125
衡量	-8126
▁有無巴打	-8127
都有一個人	-8128
會死	-8129
抵撚死	-8130
邊爐	-8131
又未	-8132
和解	-8133
就不	-8134
己經	-8135
看了	-8136
傳奇	-8137
會計	-8138
行車	-8139
▁72	-8140
▁一句	-8141
心急	-8142
▁以下	-8143
睇好	-8144
一個禮拜	-8145
十二碼	-8146
上山	-8147
犀利	-8148
造型	-8149
老尾	-8150
反修例	-8151
大圍	-8152
不出	-8153
就喺	-8154
共產主義	-8155
就知道	-8156
大家唔好	-8157
▁都話	-8158
="33	-8159
▁612721811	-8160
你知唔知	-8161
耐咗	-8162
加密	-8163
南區	-8164
幽默	-8165
聆聽	-8166
行星	-8167
便宜	-8168
▁呢種	-8169
之路	-8170
仍有	-8171
就咪	-8172
比人話	-8173
胡椒	-8174
買人	-8175
醫管局	-8176
㗎嘛	-8177
用品	-8178
▁澳門	-8179
汽油彈	-8180
時勢	-8181
召開	-8182
書記	-8183
▁回	-8184
新野	-8185
追蹤	-8186
▁你知唔知	-8187
前進	-8188
去死	-8189
總監	-8190
▁呢條	-8191
睇曬	-8192
魔王	-8193
合理化	-8194
分咗	-8195
阿姐	-8196
愛的	-8197
▁放心	-8198
幾好睇	-8199
懷念	-8200
已經被	-8201
一票	-8202
十九	-8203
好好笑	-8204
中港	-8205
這就是	-8206
="20	-8207
濕濕	-8208
▁嘅	-8209
珍珠	-8210
支國	-8211
街道	-8212
係呢	-8213
▁我用	-8214
友誼	-8215
只想	-8216
學界	-8217
咁啦	-8218
緊你	-8219
撚咗佢	-8220
佢打	-8221
播放	-8222
豪宅	-8223
工聯會	-8224
有冇咩	-8225
亦都係	-8226
收唔到	-8227
▁星	-8228
好貴	-8229
心底	-8230
榮譽	-8231
源頭	-8232
太遠	-8233
有病	-8234
食品	-8235
▁越	-8236
烈士	-8237
腳步	-8238
墨西哥	-8239
拍過	-8240
捐款	-8241
要小心	-8242
▁簡	-8243
比班	-8244
九龍塘	-8245
走唔到	-8246
到今日	-8247
係做	-8248
埋身	-8249
關事	-8250
只係一個	-8251
引致	-8252
諗嚇	-8253
算是	-8254
落力	-8255
唔係要	-8256
推行	-8257
迴避	-8258
佩服	-8259
喉嚨	-8260
想打	-8261
種種	-8262
and	-8263
點玩	-8264
三毛	-8265
大多	-8266
▁錢	-8267
咪又	-8268
工作人員	-8269
前輩	-8270
發電	-8271
上任	-8272
臺仔	-8273
同我一樣	-8274
球王	-8275
唔等於	-8276
跪低	-8277
▁Ch	-8278
週末	-8279
▁2017	-8280
傳聞	-8281
唔搞	-8282
等咗	-8283
唔撚識	-8284
權威	-8285
訊號	-8286
咖哩	-8287
民主法案	-8288
出哂	-8289
大佢	-8290
▁沒有	-8291
▁著	-8292
打倒	-8293
低能	-8294
俾咗	-8295
▁唔夠	-8296
▁我以為	-8297
05	-8298
上心	-8299
小孩	-8300
就講	-8301
營業	-8302
天的	-8303
治安	-8304
當自己	-8305
艱難	-8306
更衣室	-8307
背心	-8308
▁最撚	-8309
屌得	-8310
瞓著	-8311
專用	-8312
都食	-8313
間鋪	-8314
擔保	-8315
對立	-8316
村民	-8317
說了	-8318
面上	-8319
一塊	-8320
互聯網	-8321
也不會	-8322
可信	-8323
正能量	-8324
未經	-8325
嘅心	-8326
政客	-8327
連奴	-8328
▁唔緊要	-8329
▁老老實實	-8330
打氣	-8331
近代	-8332
遭到	-8333
▁呢場	-8334
三隻	-8335
蝗語	-8336
拎唔到	-8337
乜乜乜	-8338
一拳	-8339
雪櫃	-8340
有車	-8341
踢走	-8342
▁假設	-8343
嘅小	-8344
陷阱	-8345
▁我同	-8346
的情況吓	-8347
⠄⠄	-8348
都有好多	-8349
消息指	-8350
▁所謂	-8351
三萬	-8352
能否	-8353
警車	-8354
到佢地	-8355
睇開	-8356
係香港人	-8357
入坑	-8358
命中	-8359
嘅人生	-8360
那種	-8361
▁加埋	-8362
▁世	-8363
毒品	-8364
半個月	-8365
▁曾經	-8366
咗好多次	-8367
德里	-8368
還好	-8369
有時會	-8370
真係唔係	-8371
最難	-8372
你都要	-8373
公關	-8374
突然間	-8375
上月	-8376
等多	-8377
食花生	-8378
會唔會係	-8379
就能	-8380
(19	-8381
有幾多個	-8382
▁即刻	-8383
得唔好	-8384
顯然	-8385
先開	-8386
用家	-8387
日常生活	-8388
結合	-8389
咪即係	-8390
的中國	-8391
幾有	-8392
第六	-8393
國慶	-8394
滅亡	-8395
黨員	-8396
想玩	-8397
你應該	-8398
好攰	-8399
=34	-8400
癱瘓	-8401
外地	-8402
抗疫	-8403
▁燒	-8404
出力	-8405
嚟自	-8406
▁出生	-8407
▁2016	-8408
嗰間	-8409
瞓到	-8410
出於	-8411
暗瘡	-8412
有撚	-8413
藥房	-8414
消防員	-8415
▁米	-8416
煮飯	-8417
過一	-8418
02	-8419
▁政治	-8420
已經好好	-8421
帶埋	-8422
想死	-8423
魅力	-8424
都唔記得	-8425
副主席	-8426
無理由	-8427
▁「[	-8428
你咩	-8429
=20	-8430
嘅名	-8431
係垃圾	-8432
警棍	-8433
▁史	-8434
記唔記得	-8435
出售	-8436
同我地	-8437
希望佢	-8438
人間	-8439
呀你	-8440
牛熊	-8441
呢個名	-8442
周同學	-8443
就入	-8444
界別	-8445
出埋	-8446
-0.5	-8447
風景	-8448
實踐	-8449
▁重點	-8450
要自己	-8451
示範	-8452
座位	-8453
嘅說話	-8454
識玩	-8455
1,2	-8456
嘅好	-8457
解讀	-8458
興建	-8459
舊錢	-8460
="34	-8461
白衫	-8462
有名	-8463
▁最慘	-8464
兩老	-8465
比你地	-8466
領導人	-8467
展現	-8468
▁改	-8469
利記	-8470
就放	-8471
娛樂圈	-8472
應唔應該	-8473
蘋果日報	-8474
一來	-8475
那裡	-8476
以至	-8477
轉型	-8478
▁睇返	-8479
勁嘅	-8480
130	-8481
咁辛苦	-8482
出門口	-8483
都係垃圾	-8484
培訓	-8485
辦事處	-8486
去了	-8487
會好啲	-8488
我寧願	-8489
生果	-8490
又係咁	-8491
邊緣	-8492
▁共產黨	-8493
之鋒	-8494
對人	-8495
導彈	-8496
沒有任何	-8497
呢個人	-8498
就等於	-8499
是誰	-8500
咁難	-8501
其實佢	-8502
廣東省	-8503
外的	-8504
一開頭	-8505
允許	-8506
指標	-8507
咩野	-8508
年初	-8509
唔跟	-8510
搵過	-8511
莫斯	-8512
食嘅	-8513
點諗	-8514
▁你睇吓	-8515
但在	-8516
宣揚	-8517
-2	-8518
低頭	-8519
教堂	-8520
踢爆	-8521
都俾人	-8522
你買	-8523
好細	-8524
贏波	-8525
香港特別行政區	-8526
同胞	-8527
同阿	-8528
止蝕	-8529
賭場	-8530
打扮	-8531
高雄	-8532
之後先	-8533
補貼	-8534
反對派	-8535
▁刷	-8536
整容	-8537
好煩	-8538
高潮	-8539
便利	-8540
君堯	-8541
3%	-8542
姿勢	-8543
肚餓	-8544
都見到	-8545
前場	-8546
連鎖	-8547
斷咗	-8548
▁每個人	-8549
便會	-8550
分類	-8551
出嚟啦	-8552
落單	-8553
!(	-8554
敦道	-8555
劇場	-8556
多餘	-8557
有成	-8558
支持你	-8559
頭上	-8560
救護車	-8561
個男人	-8562
只不過係	-8563
06	-8564
接納	-8565
老解	-8566
運費	-8567
工程師	-8568
遍地開花	-8569
得入	-8570
君子	-8571
篇野	-8572
人先	-8573
天王	-8574
實在太	-8575
打一	-8576
演藝	-8577
遊樂	-8578
點同	-8579
嘅路	-8580
回血	-8581
住自己	-8582
人用	-8583
同盟	-8584
幾蚊	-8585
何妖	-8586
港區	-8587
勇士	-8588
深藍	-8589
撚鳩	-8590
到成	-8591
忠誠	-8592
▁遊行	-8593
不容	-8594
你已經	-8595
▁咁就	-8596
集氣	-8597
啦我	-8598
不久	-8599
獌狗	-8600
▁答	-8601
動員	-8602
代言	-8603
▁因	-8604
想過	-8605
清場	-8606
疾病	-8607
顛覆	-8608
07	-8609
台灣	-8610
之戰	-8611
早日	-8612
滅絕	-8613
冇人會	-8614
愛我	-8615
$10	-8616
裝飾	-8617
無效	-8618
綠帽	-8619
唔出奇	-8620
電動	-8621
必需	-8622
洗頭	-8623
自己諗	-8624
罷買	-8625
流傳	-8626
▁抗爭	-8627
依家係	-8628
而不是	-8629
迎接	-8630
百姓	-8631
最後一次	-8632
周邊	-8633
毓民	-8634
▁電話	-8635
手下	-8636
不得不	-8637
購物	-8638
3,4	-8639
了一下	-8640
只得	-8641
呢行	-8642
發生咗	-8643
英國人	-8644
要唔要	-8645
▁支那人	-8646
同美國	-8647
慾望	-8648
呢條友	-8649
業界	-8650
貝爾	-8651
芝士	-8652
3.5	-8653
斷腳	-8654
同小	-8655
從此	-8656
行緊	-8657
街站	-8658
我一直	-8659
延長	-8660
彥霖	-8661
消毒	-8662
同有	-8663
唔適合	-8664
言之	-8665
要搞	-8666
都成日	-8667
鄉黑	-8668
海洋公園	-8669
颱風	-8670
都仲要	-8671
焦土	-8672
星期四	-8673
▁令	-8674
車廂	-8675
▁I	-8676
以免	-8677
裁決	-8678
~~~~	-8679
把刀	-8680
果到	-8681
是不是	-8682
立法會選舉	-8683
吸引力	-8684
字頭	-8685
重開	-8686
唔係我	-8687
微微	-8688
電車	-8689
聖誕節	-8690
咪好	-8691
心事	-8692
食嘢	-8693
▁我唔知	-8694
分唔到	-8695
有信心	-8696
▁100	-8697
身旁	-8698
不受	-8699
又大	-8700
喺我	-8701
收市	-8702
多數都係	-8703
▁唔明	-8704
▁朋友	-8705
返我	-8706
出嚟做野	-8707
「",	-8708
▁公	-8709
店舖	-8710
開了	-8711
都搵唔到	-8712
電訊	-8713
唔重要	-8714
3)	-8715
▁臨	-8716
被打	-8717
▁啱呀	-8718
多元	-8719
拿拿	-8720
▁普通	-8721
通關	-8722
總站	-8723
其它	-8724
大小	-8725
排到	-8726
發癲	-8727
人家	-8728
寫字	-8729
▁11.	-8730
行咗	-8731
就一定要	-8732
都唔應該	-8733
一單	-8734
不良	-8735
泳池	-8736
睇番	-8737
的一個	-8738
無哂	-8739
我應該	-8740
都市	-8741
存在感	-8742
風扇	-8743
仲好啦	-8744
樣樣	-8745
搞到咁	-8746
引擎	-8747
▁呢套	-8748
單程	-8749
封信	-8750
風水	-8751
▁快啲	-8752
要點	-8753
得好快	-8754
跟隨	-8755
咁點	-8756
妥協	-8757
少過	-8758
臺幣	-8759
無意	-8760
索性	-8761
順手	-8762
重要性	-8763
收拾	-8764
笑到	-8765
輕鐵	-8766
一鳩	-8767
前方	-8768
眼睇	-8769
▁地點	-8770
生的	-8771
硬食	-8772
112	-8773
少少嘅	-8774
要再	-8775
▁炒	-8776
仔嘅	-8777
強隊	-8778
志偉	-8779
今早	-8780
收緊	-8781
關口	-8782
閣下	-8783
衛兵	-8784
制定	-8785
那樣	-8786
案例	-8787
穆斯	-8788
都搞	-8789
都唔見	-8790
出兵	-8791
一道	-8792
向後	-8793
碎片	-8794
淨係得	-8795
打埋	-8796
二世	-8797
拖住	-8798
國家嘅	-8799
成班人	-8800
商務	-8801
一個好	-8802
同時間	-8803
人話	-8804
還押	-8805
口音	-8806
段片	-8807
一講	-8808
擊敗	-8809
都一定	-8810
升降	-8811
吾爾	-8812
▁熱	-8813
▁知	-8814
▁假	-8815
▁首	-8816
同你一齊	-8817
留喺	-8818
想用	-8819
咗隻	-8820
先做到	-8821
都唔駛	-8822
發行日期	-8823
▁佢有	-8824
唔好搞	-8825
▁K	-8826
▁追	-8827
▁身邊	-8828
之後會	-8829
原地	-8830
車牌	-8831
▁可能係	-8832
繁忙	-8833
此外	-8834
三星	-8835
唔係佢	-8836
是要	-8837
狗會	-8838
也可以	-8839
二千	-8840
頭來	-8841
風波	-8842
中秋	-8843
外匯	-8844
監警	-8845
比利時	-8846
傳送	-8847
討論吓	-8848
2%	-8849
5,	-8850
涉事	-8851
創業	-8852
先到	-8853
靈活	-8854
阿拉伯	-8855
拉麵	-8856
六年	-8857
酒樓	-8858
模糊	-8859
有什麼	-8860
都真係	-8861
▁雲	-8862
二代	-8863
先話	-8864
區內	-8865
915	-8866
但係我	-8867
商戶	-8868
你睇吓	-8869
嚟做乜	-8870
份量	-8871
國防	-8872
第一季	-8873
騎劫	-8874
▁呢樣	-8875
帳號	-8876
換走	-8877
▁任何	-8878
咁話	-8879
」;	-8880
沒事	-8881
猶太人	-8882
後再	-8883
但都係	-8884
▁擺	-8885
▁最新	-8886
gt	-8887
▁■	-8888
的國家	-8889
咁早	-8890
條文	-8891
三文	-8892
尚未	-8893
採用	-8894
羣組	-8895
▁果然	-8896
俾大家	-8897
氣候	-8898
啲講	-8899
不過係	-8900
美國總統	-8901
江湖	-8902
大中華	-8903
就咪撚	-8904
特性	-8905
▁12.	-8906
撚到仆街	-8907
國語	-8908
選擇性	-8909
唔鬱	-8910
融合	-8911
惡化	-8912
最叻	-8913
埋我	-8914
貪污	-8915
一件事	-8916
仍在	-8917
▁唔可以	-8918
真係好正	-8919
講自己	-8920
吉野	-8921
收咗皮	-8922
騎師	-8923
比我地	-8924
會對	-8925
帶口罩	-8926
之人	-8927
依舊	-8928
羣體	-8929
萬個	-8930
保皇黨	-8931
大家可以	-8932
份糧	-8933
總裁	-8934
唔見咗	-8935
馬鞍山	-8936
都喺	-8937
▁香港地	-8938
比到	-8939
太平洋	-8940
好似無	-8941
驅逐	-8942
第三者	-8943
會心	-8944
景點	-8945
生性	-8946
舉起	-8947
應該是	-8948
▁只可以	-8949
大專	-8950
腦袋	-8951
就開	-8952
無罪	-8953
打卡	-8954
市長	-8955
財富	-8956
合一	-8957
幾靚	-8958
作曲	-8959
打後	-8960
摧毀	-8961
脂肪	-8962
車車	-8963
係話	-8964
嘅新	-8965
就完	-8966
▁這個	-8967
獎金	-8968
農業	-8969
折磨	-8970
嘅可以	-8971
瞓唔著	-8972
▁杜	-8973
圍攻	-8974
我淨係	-8975
多到	-8976
接手	-8977
個度	-8978
西貢	-8979
幾千蚊	-8980
約束	-8981
有間	-8982
監督	-8983
公婆	-8984
眾志	-8985
芷若	-8986
幾間	-8987
俾人打	-8988
兩間	-8989
八年	-8990
咁多次	-8991
收手	-8992
你就會	-8993
穆斯林	-8994
240	-8995
號召	-8996
轉移視線	-8997
唔叫	-8998
▁夜晚	-8999
好容易	-9000
。《	-9001
我最	-9002
女女	-9003
後代	-9004
按摩	-9005
遊擊	-9006
先咁	-9007
拍到	-9008
火龍	-9009
再出	-9010
東區	-9011
葵涌	-9012
邊境	-9013
之後又	-9014
係假	-9015
就越	-9016
坐低	-9017
計畫	-9018
促進	-9019
▁生日	-9020
旨意	-9021
平手	-9022
抱住	-9023
運行	-9024
海鮮	-9025
▁老母	-9026
會做	-9027
一口氣	-9028
見到有人	-9029
撤銷	-9030
太少	-9031
支出	-9032
ne	-9033
皇后	-9034
妄想	-9035
撚把	-9036
▁同樣	-9037
咁多嘢	-9038
▁奧	-9039
角落	-9040
晶片	-9041
柏林	-9042
流亡	-9043
哪裡	-9044
永遠都係	-9045
寶寶	-9046
新機	-9047
靜坐	-9048
▁認同	-9049
又唔識	-9050
頭腦	-9051
屈人	-9052
去美國	-9053
有日	-9054
祈禱	-9055
足協	-9056
重組	-9057
280	-9058
咁打	-9059
現貨	-9060
問點解	-9061
都入唔到	-9062
去廁所	-9063
2007	-9064
參賽者	-9065
屌完	-9066
不得了	-9067
星星	-9068
▁出面	-9069
▁目前	-9070
仲有無	-9071
都唔差	-9072
曖昧	-9073
武功	-9074
亞冠	-9075
充分	-9076
冇睇	-9077
財經	-9078
上半	-9079
480	-9080
不管	-9081
錢嘅	-9082
一分鐘	-9083
再做	-9084
外援	-9085
從事	-9086
女童	-9087
渠道	-9088
▁等睇	-9089
共享	-9090
最多咪	-9091
▁派	-9092
他又	-9093
出貨	-9094
你食	-9095
物種	-9096
出自	-9097
入門	-9098
在內	-9099
邊隊	-9100
35+	-9101
已是	-9102
個人覺得	-9103
!]	-9104
入返	-9105
白白	-9106
▁準備	-9107
合併	-9108
最好的	-9109
▁E	-9110
等睇	-9111
▁醫生	-9112
/12/2019	-9113
康復	-9114
▁呢個真	-9115
都係佢	-9116
就搵	-9117
政協	-9118
吓一步	-9119
名為	-9120
教人	-9121
毫不	-9122
嘅工作	-9123
沒想到	-9124
封殺	-9125
維吾爾	-9126
大獲	-9127
慈善	-9128
▁葉	-9129
四周	-9130
爾斯	-9131
嘅世界	-9132
仔同	-9133
荔枝	-9134
網路	-9135
同你一樣	-9136
個套	-9137
大嶼	-9138
唔到人	-9139
料到	-9140
阿爺	-9141
但唔好	-9142
大橋	-9143
▁屌佢	-9144
上過	-9145
出行	-9146
酒精	-9147
99%	-9148
溫暖	-9149
之前有	-9150
▁基	-9151
放棄咗	-9152
過半	-9153
只有一	-9154
降班	-9155
食肆	-9156
仔咁	-9157
打字	-9158
="19	-9159
一看	-9160
狼人	-9161
先係最	-9162
有得揀	-9163
背叛	-9164
個個人	-9165
先會有	-9166
行落去	-9167
出國	-9168
天主教	-9169
知我	-9170
視野	-9171
港版	-9172
預約	-9173
街上	-9174
客氣	-9175
一心	-9176
大道	-9177
撤退	-9178
帶走	-9179
▁提	-9180
溫泉	-9181
一齊玩	-9182
你唔會	-9183
咗咁多年	-9184
佢唔會	-9185
一季	-9186
主辦	-9187
▁歡迎	-9188
特價	-9189
趨勢	-9190
垃圾桶	-9191
捱到	-9192
女王	-9193
輔助	-9194
不敗	-9195
剩低	-9196
一兩個	-9197
▁一定係	-9198
拿著	-9199
▁你都	-9200
好似話	-9201
▁我以前	-9202
隻隻	-9203
aint	-9204
鳩叫	-9205
殺人犯	-9206
▁除	-9207
陪佢	-9208
零件	-9209
十年代	-9210
大學畢業	-9211
角道	-9212
個男仔	-9213
無所	-9214
屌你老味	-9215
要講	-9216
響起	-9217
▁唔記得	-9218
嘅片	-9219
發燒	-9220
但真係	-9221
▁月	-9222
平反	-9223
離去	-9224
跳閘	-9225
-12	-9226
:(	-9227
搞鳩	-9228
糧食	-9229
言語	-9230
of	-9231
亦是	-9232
公子	-9233
都屌	-9234
走過	-9235
係臺灣	-9236
你以為	-9237
完又	-9238
電郵	-9239
▁與	-9240
唔捨得	-9241
國難	-9242
左翼	-9243
無所謂	-9244
可靠	-9245
呢單	-9246
真理	-9247
吓就	-9248
有幾大	-9249
將在	-9250
個女人	-9251
大西北	-9252
▁重點係	-9253
咁細	-9254
理撚	-9255
好好多	-9256
▁戴	-9257
對腳	-9258
▁對住	-9259
貴族	-9260
-18	-9261
這場	-9262
▁得罪	-9263
中國共產黨	-9264
出戰	-9265
分佈	-9266
路過	-9267
十點	-9268
極大	-9269
▁真正	-9270
▁N	-9271
一刀	-9272
親友	-9273
▁萬	-9274
有愛	-9275
起到	-9276
都入	-9277
上映	-9278
吓嘅	-9279
穿著	-9280
唔同意	-9281
好撚勁	-9282
而我	-9283
整咗	-9284
維基	-9285
聽唔到	-9286
美女	-9287
$100	-9288
都係冇	-9289
人又	-9290
51	-9291
」!	-9292
及時	-9293
踢法	-9294
選項	-9295
▁23	-9296
韓國瑜	-9297
女方	-9298
唔甩	-9299
手持	-9300
。。。。。。。。	-9301
其間	-9302
證券	-9303
先算	-9304
喺邊	-9305
有手足	-9306
遠離	-9307
都係無	-9308
灰色	-9309
事前	-9310
優秀	-9311
也不是	-9312
依法	-9313
▁同你	-9314
你地班	-9315
入屋	-9316
頓時	-9317
不適	-9318
最平	-9319
唔收	-9320
論述	-9321
清理	-9322
就更加	-9323
講到咁	-9324
駁唔到	-9325
庇護	-9326
請求	-9327
僕你個	-9328
開場	-9329
嘅一種	-9330
傻西	-9331
全能	-9332
監視	-9333
幫幫手	-9334
對波	-9335
他認為	-9336
輪迴	-9337
電池	-9338
除非你	-9339
醫護人員	-9340
涉案	-9341
▁鍾意	-9342
唔好做	-9343
李城	-9344
漏咗	-9345
佢應該	-9346
不覺	-9347
建國	-9348
發現自己	-9349
自殺身亡	-9350
可以令	-9351
一月	-9352
吧啦	-9353
要係	-9354
睇唔明	-9355
▁一係就	-9356
發放	-9357
覆蓋	-9358
廢除	-9359
▁唯有	-9360
隨意	-9361
▁我成日	-9362
.8	-9363
打嚟	-9364
民心	-9365
▁是但	-9366
物件	-9367
轉行	-9368
還未	-9369
先夠	-9370
王國	-9371
素材	-9372
將個	-9373
增強	-9374
跑到	-9375
拿出	-9376
▁投	-9377
人為	-9378
講曬	-9379
2009	-9380
搵啲	-9381
把我	-9382
傳波	-9383
豁免	-9384
就係佢	-9385
最基本	-9386
▁嗰陣	-9387
不合	-9388
可否	-9389
黃嘅	-9390
寫明	-9391
▁發行日期	-9392
跑馬	-9393
不分化	-9394
大致	-9395
日的	-9396
吓啲	-9397
吓盤	-9398
所需	-9399
空姐	-9400
?!」	-9401
念頭	-9402
氣勢	-9403
也在	-9404
爭住	-9405
高峯	-9406
盲反	-9407
▁呢到	-9408
貿易協議	-9409
▁摩	-9410
認定	-9411
懲教	-9412
▁我話	-9413
手勢	-9414
捉人	-9415
癲狗	-9416
而被	-9417
▁熱狗	-9418
盟友	-9419
撚定	-9420
見我	-9421
人鏈	-9422
寶石	-9423
格硬	-9424
仲諗住	-9425
打錯	-9426
支撐	-9427
用作	-9428
加人工	-9429
04	-9430
到連	-9431
佢個樣	-9432
▁郭	-9433
海道	-9434
野就	-9435
強度	-9436
一樣係	-9437
的生活	-9438
▁「1.	-9439
要食	-9440
▁隔	-9441
#1	-9442
住了	-9443
多得	-9444
世界大戰	-9445
錢就	-9446
▁th	-9447
我屌	-9448
▁社會	-9449
符號	-9450
開市	-9451
你知道	-9452
可以講	-9453
你呢	-9454
幾集	-9455
成了	-9456
盲撐	-9457
自在	-9458
下體	-9459
並在	-9460
都唔理	-9461
▁聖	-9462
2003	-9463
有助	-9464
何時	-9465
恐慌	-9466
▁班狗	-9467
這段	-9468
收益	-9469
依種	-9470
用完	-9471
-11	-9472
上腦	-9473
▁中間	-9474
例外	-9475
望向	-9476
眾多	-9477
舉動	-9478
亦無	-9479
我驚	-9480
清洗	-9481
班黑警	-9482
我咪	-9483
打曬	-9484
直言	-9485
後就	-9486
派膠	-9487
等候	-9488
又屌	-9489
90%	-9490
ra	-9491
簡稱	-9492
手足嘅	-9493
斯拉	-9494
小型	-9495
理智	-9496
幅圖	-9497
當勞	-9498
當天	-9499
貪心	-9500
那是	-9501
囡囡	-9502
路口	-9503
▁c	-9504
善用	-9505
大半	-9506
店員	-9507
決策	-9508
聽得	-9509
變種	-9510
請願	-9511
▁隔離	-9512
中有	-9513
參觀	-9514
▁旺角	-9515
he	-9516
前景	-9517
月初	-9518
離譜	-9519
本身有	-9520
啲咁	-9521
蝴蝶	-9522
▁面對	-9523
一口	-9524
6,	-9525
就住	-9526
攞咗	-9527
約翰	-9528
所講嘅	-9529
一直都係	-9530
冇哂	-9531
="14	-9532
事啦	-9533
只需要	-9534
彌敦道	-9535
覺得我	-9536
加多	-9537
=14	-9538
多唔多	-9539
東湧	-9540
笑咗	-9541
顧客	-9542
埋一邊	-9543
有線	-9544
進展	-9545
▁小學	-9546
裡的	-9547
▁好過	-9548
呢方面	-9549
西九龍	-9550
外掛	-9551
進去	-9552
其他嘢	-9553
不嬲都係	-9554
/3	-9555
成身	-9556
機師	-9557
火力	-9558
無一	-9559
突出	-9560
而去	-9561
覺得自己好	-9562
張飛	-9563
▁咁嘅	-9564
警務處	-9565
血統	-9566
二次	-9567
越大	-9568
炳強	-9569
無人會	-9570
機械人	-9571
▁呢個係	-9572
幾勁	-9573
港男	-9574
端端	-9575
=19	-9576
首席	-9577
請大家	-9578
搵咗	-9579
教徒	-9580
日至	-9581
變身	-9582
將香港	-9583
犯錯	-9584
三百	-9585
信徒	-9586
地利	-9587
▁其實係咪	-9588
我買	-9589
聽歌	-9590
你而家	-9591
年先	-9592
效益	-9593
獨派	-9594
罪犯	-9595
無比	-9596
我一定	-9597
鳳凰	-9598
李家超	-9599
▁鄧	-9600
打波	-9601
嚟食	-9602
年幾	-9603
有狗	-9604
英美	-9605
ent	-9606
點解咁	-9607
低級	-9608
轉去	-9609
81	-9610
海濱	-9611
初心	-9612
離場	-9613
屙尿	-9614
只有一個	-9615
佢點	-9616
輸到	-9617
唔知自己	-9618
副本	-9619
水炮車	-9620
下巴	-9621
呢張	-9622
個個都係	-9623
▁留意	-9624
想走	-9625
更何況	-9626
▁達	-9627
在乎	-9628
▁咁大	-9629
困擾	-9630
都沒	-9631
利潤	-9632
完人	-9633
好似你咁	-9634
▁麻煩	-9635
披露	-9636
▁「2.	-9637
嘅相	-9638
搞個	-9639
死刑	-9640
飛馬	-9641
逃走	-9642
唔夠人	-9643
無辦法	-9644
耳仔	-9645
只能夠	-9646
的人士	-9647
民族主義	-9648
觸發	-9649
看法	-9650
佢就會	-9651
平平	-9652
犯咗	-9653
氣質	-9654
▁現	-9655
一批	-9656
一級	-9657
短短	-9658
@1.	-9659
坐下	-9660
空位	-9661
第二季	-9662
毛巾	-9663
做自己	-9664
轉工	-9665
明唔明	-9666
在美國	-9667
總結	-9668
,)	-9669
同日	-9670
探索	-9671
埋一份	-9672
火燒	-9673
行使	-9674
有時候	-9675
嚟過	-9676
▁擺明	-9677
扮演	-9678
▁你咁	-9679
▁誰	-9680
吉野家	-9681
有曬	-9682
地產商	-9683
▁開頭	-9684
獨立思考	-9685
▁但是	-9686
一模一樣	-9687
真係好多	-9688
先做	-9689
到咩	-9690
生嘅	-9691
」」	-9692
佢出	-9693
先識	-9694
連埋	-9695
年內	-9696
點解可以	-9697
連同	-9698
撥款	-9699
亞軍	-9700
急症	-9701
▁唔明點解	-9702
乜春	-9703
當事人	-9704
不上	-9705
都不能	-9706
有埋	-9707
笑死	-9708
係英國	-9709
握手	-9710
理所	-9711
推爆佢	-9712
港產	-9713
細路仔	-9714
各位巴打	-9715
畀我	-9716
考驗	-9717
週一	-9718
死黑警	-9719
放題	-9720
當真	-9721
罰球	-9722
原理	-9723
鬱手	-9724
奶粉	-9725
購入	-9726
小丑	-9727
鳩噏	-9728
的他	-9729
慳返	-9730
會將	-9731
的臉	-9732
俾自己	-9733
▁你咁講	-9734
左上	-9735
保住	-9736
展覽	-9737
狗都	-9738
兩個字	-9739
同政府	-9740
讓你	-9741
入市	-9742
定罪	-9743
漏洞	-9744
中國嘅	-9745
食屎啦	-9746
▁百	-9747
幾秒	-9748
低咗	-9749
導師	-9750
拉斯	-9751
飯民	-9752
單方面	-9753
碌鳩	-9754
神獸	-9755
▁@	-9756
長久	-9757
七八	-9758
追問	-9759
生理	-9760
黑哨	-9761
中英聯合聲明	-9762
馬克	-9763
個客	-9764
口交	-9765
接獲	-9766
係打	-9767
▁前面	-9768
▁熊	-9769
到死	-9770
其中一	-9771
又是	-9772
理應	-9773
▁吓吓	-9774
壟斷	-9775
▁有啲人	-9776
做了	-9777
港英	-9778
做朋友	-9779
就預咗	-9780
丹麥	-9781
疑惑	-9782
西灣	-9783
致電	-9784
▁這是	-9785
絕殺	-9786
坦言	-9787
覺悟	-9788
都勁	-9789
▁支	-9790
讓步	-9791
射門	-9792
貴過	-9793
黑鬼	-9794
四十	-9795
國際線	-9796
支持香港	-9797
8,	-9798
車長	-9799
作為一個	-9800
▁佢自己	-9801
分到	-9802
守住	-9803
乜都冇	-9804
銀河	-9805
一齊咗	-9806
我就係	-9807
各個	-9808
不作	-9809
冷血	-9810
任何野	-9811
到期	-9812
教我	-9813
▁仲以為	-9814
電器	-9815
比返	-9816
注意力	-9817
校服	-9818
聽話	-9819
▁8.	-9820
講得出	-9821
說過	-9822
上返	-9823
劇集	-9824
通識	-9825
吹風	-9826
追返	-9827
邊有人	-9828
點可以	-9829
企喺	-9830
外星人	-9831
用心	-9832
預防	-9833
許可	-9834
係鬼	-9835
加息	-9836
又唔夠	-9837
光復香港時代革命	-9838
悲劇	-9839
視覺	-9840
鬧交	-9841
▁入面	-9842
中過	-9843
面試	-9844
都有一個人都有一個人	-9845
抱歉	-9846
雷斯	-9847
▁跌	-9848
出線	-9849
遲咗	-9850
最鐘意	-9851
基建	-9852
引人	-9853
睇個	-9854
我都唔會	-9855
爭取民主	-9856
理所當然	-9857
有過	-9858
炒咗	-9859
▁歷史	-9860
上一代	-9861
牛奶	-9862
通宵	-9863
震驚	-9864
傷亡	-9865
巴基	-9866
開心心	-9867
喫飯	-9868
搞得掂	-9869
但就	-9870
弟子	-9871
得切	-9872
起義	-9873
我未	-9874
麻雀	-9875
咁多個	-9876
山頂	-9877
=29	-9878
os	-9879
也就是	-9880
商討	-9881
第一場	-9882
嗰套	-9883
斬人	-9884
▁我明	-9885
不需要	-9886
因為佢地	-9887
隱形	-9888
通常都係	-9889
穿越	-9890
包埋	-9891
逃生	-9892
低下	-9893
援助	-9894
細細個	-9895
吖嘛	-9896
垃撚	-9897
笑著	-9898
謠言	-9899
他指	-9900
屁股	-9901
機甲	-9902
▁非	-9903
租樓	-9904
嘅表現	-9905
搵吓	-9906
臭西	-9907
都冇問題	-9908
古惑	-9909
登入	-9910
▁沙田	-9911
我依家	-9912
觀看	-9913
經理人	-9914
高低	-9915
我哋嘅	-9916
改造	-9917
物體	-9918
清朝	-9919
冷戰	-9920
燃燒	-9921
童年	-9922
▁叫佢	-9923
:2019	-9924
▁好快	-9925
就算有	-9926
+2	-9927
創辦	-9928
檢疫	-9929
▁老豆	-9930
司馬	-9931
醒咗	-9932
貼紙	-9933
刷到	-9934
望著	-9935
裝置	-9936
年頭	-9937
遠處	-9938
直升	-9939
同大陸	-9940
唔存在	-9941
▁好似話	-9942
佢好似	-9943
的朋友	-9944
▁我依家	-9945
內疚	-9946
初戀	-9947
用腦	-9948
多陣	-9949
普世	-9950
高啲	-9951
▁,	-9952
上齊	-9953
做戲	-9954
合唱	-9955
嚇親	-9956
架咋	-9957
輸比	-9958
不成	-9959
諗諗	-9960
無權	-9961
完再	-9962
閉路	-9963
都有個	-9964
唔番	-9965
去左邊	-9966
有冇巴打	-9967
狗仔	-9968
▁歐洲	-9969
抬頭	-9970
名嘅	-9971
極力	-9972
皮野	-9973
漢堡	-9974
▁係啊	-9975
-6	-9976
偏向	-9977
千年	-9978
▁可是	-9979
唔好食	-9980
大家有	-9981
就最好	-9982
繁榮	-9983
▁再者	-9984
人人都	-9985
晚餐	-9986
西蘭	-9987
預料	-9988
聯軍	-9989
平過	-9990
本身都	-9991
▁富	-9992
咁去	-9993
是為了	-9994
的決定	-9995
="29	-9996
克羅	-9997
大公	-9998
佢係咪	-9999
上天	-10000
女嘅	-10001
出名嘅	-10002
債務	-10003
現身	-10004
好痛	-10005
可以買	-10006
靚嘅	-10007
的力量	-10008
金融中心	-10009
,12	-10010
第二階段	-10011
並未	-10012
交通工具	-10013
飲茶	-10014
病房	-10015
戇鳩仔	-10016
一身	-10017
細心	-10018
出門	-10019
濕疹	-10020
解除	-10021
中下	-10022
同步	-10023
農曆	-10024
體內	-10025
憂慮	-10026
死守	-10027
緩緩	-10028
擺脫	-10029
每晚	-10030
結他	-10031
食咩	-10032
▁每個	-10033
但未	-10034
出年	-10035
見到啲	-10036
廣傳	-10037
落臺	-10038
政府同	-10039
柒到	-10040
▁五毛	-10041
反問	-10042
英語	-10043
雷神	-10044
被捕人士	-10045
都算係	-10046
咁滯	-10047
年起	-10048
麻醉	-10049
又驚	-10050
質量	-10051
無耐	-10052
仲有個	-10053
佢兩個	-10054
講到自己	-10055
詢問	-10056
嘅方式	-10057
看起來	-10058
.9	-10059
格仔	-10060
話比	-10061
。)	-10062
六日	-10063
專員	-10064
武士	-10065
識講	-10066
▁出咗	-10067
青少年	-10068
定律	-10069
不堪	-10070
答我	-10071
幾個人	-10072
所有嘢	-10073
193	-10074
▁立法會	-10075
以前嘅	-10076
多一個	-10077
白色恐怖	-10078
上路	-10079
兼職	-10080
出錯	-10081
▁點睇	-10082
北區	-10083
右翼	-10084
無雙	-10085
=22	-10086
長沙灣	-10087
哈哈哈哈	-10088
中原	-10089
國務院	-10090
禁制令	-10091
▁我試過	-10092
大勝	-10093
限時	-10094
想不到	-10095
用自己	-10096
競技	-10097
米蘭	-10098
▁唔同	-10099
就唔使	-10100
約定	-10101
,20	-10102
▁得閒	-10103
咁囉	-10104
嘈交	-10105
警務人員	-10106
擔憂	-10107
等如	-10108
三條	-10109
放映	-10110
有返	-10111
短暫	-10112
唔係個個	-10113
▁攞	-10114
香港人的	-10115
逐步	-10116
真係太	-10117
▁家	-10118
同類	-10119
收息	-10120
相應	-10121
西方國家	-10122
信唔信	-10123
大炒	-10124
出血	-10125
讓她	-10126
打狗	-10127
。」」	-10128
今個月	-10129
:3	-10130
果次	-10131
毋須	-10132
英撚	-10133
攻擊性武器	-10134
熱水	-10135
都無所謂	-10136
你連	-10137
填海	-10138
心意	-10139
▁我都唔知	-10140
不動	-10141
總計	-10142
高嘅	-10143
被逼	-10144
陳浩	-10145
傾吓計	-10146
比如	-10147
爆升	-10148
的神	-10149
食開	-10150
就比人	-10151
剝削	-10152
身穿	-10153
你呢啲	-10154
一地	-10155
前期	-10156
鳩我	-10157
▁好似係	-10158
你走	-10159
就由	-10160
****	-10161
傳承	-10162
嘅唔係	-10163
▁錯	-10164
另一種	-10165
犯規	-10166
1112	-10167
出境	-10168
唔受	-10169
審議	-10170
煙花	-10171
▁重要	-10172
嘅車	-10173
找數	-10174
阿爾	-10175
不可以	-10176
);	-10177
新樓	-10178
肉體	-10179
做的	-10180
成個月	-10181
陪審團	-10182
▁查	-10183
執咗	-10184
大局	-10185
角細	-10186
掩飾	-10187
出現了	-10188
溫和	-10189
幫我地	-10190
喇叭	-10191
成隻	-10192
▁木	-10193
極速	-10194
嘢講	-10195
冇理由	-10196
拉克	-10197
拘留	-10198
認可	-10199
▁咁如果	-10200
人事	-10201
曲線	-10202
老咗	-10203
北方	-10204
否決	-10205
白衣	-10206
▁近排	-10207
入過	-10208
再買	-10209
黑狗	-10210
會出現	-10211
力架	-10212
正宗	-10213
大到	-10214
反送中運動	-10215
怪獸	-10216
著住	-10217
先得架	-10218
幾百萬	-10219
都唔割	-10220
、「	-10221
地道	-10222
得耐	-10223
霸權	-10224
▁否則	-10225
的故事	-10226
次序	-10227
▁學生	-10228
冰島	-10229
南方	-10230
總共	-10231
人頭	-10232
節日	-10233
緊佢	-10234
但又唔	-10235
獅子山	-10236
靜靜地	-10237
餐飯	-10238
心聲	-10239
虛擬	-10240
都仲得	-10241
同支那	-10242
="22	-10243
猩猩	-10244
張單	-10245
派出	-10246
洗撚	-10247
680	-10248
話我知	-10249
大於	-10250
減價	-10251
實習	-10252
旗吓	-10253
退役	-10254
▁後來	-10255
成家	-10256
馬場	-10257
前幾日	-10258
播出	-10259
▁佢嘅	-10260
▁係我	-10261
▁明白	-10262
係完全	-10263
垃撚圾	-10264
洗錢	-10265
▁我仲	-10266
成撚日	-10267
▁該	-10268
下令	-10269
日在	-10270
委任證	-10271
意識形態	-10272
▁我都覺	-10273
一哥	-10274
說服力	-10275
唔係因為	-10276
攻入	-10277
氣象	-10278
嘅球員	-10279
依靠	-10280
背囊	-10281
你一個	-10282
的日子	-10283
收租	-10284
求情	-10285
▁再講	-10286
一方面	-10287
裝甲	-10288
零食	-10289
吓個月	-10290
歡樂	-10291
柴灣	-10292
生咗	-10293
目的地	-10294
上進	-10295
先走	-10296
特拉	-10297
一鳩樣	-10298
▁我屌你老母	-10299
後場	-10300
級別	-10301
係支那	-10302
大家都知	-10303
▁中大	-10304
羽毛球	-10305
▁諗緊	-10306
祝你	-10307
籌碼	-10308
睇錯	-10309
世界各地	-10310
都唔比	-10311
佢走	-10312
境界	-10313
一般人	-10314
▁V	-10315
分區	-10316
啖笑	-10317
無綫電視	-10318
傷咗	-10319
一樣嘢	-10320
句野	-10321
大麻	-10322
指令	-10323
漢字	-10324
差少少	-10325
▁現時	-10326
係呢個	-10327
嘅結果	-10328
擁護	-10329
▁你以為	-10330
好朋友	-10331
多咗好多	-10332
事宜	-10333
去英國	-10334
嘅故事	-10335
個天	-10336
唔知道	-10337
都有份	-10338
前四	-10339
菠蘿	-10340
說出	-10341
不公	-10342
▁邊有	-10343
▁尤其	-10344
這件事	-10345
正氣	-10346
菲特	-10347
▁靠	-10348
申報	-10349
▁結論	-10350
▁保	-10351
唔一定要	-10352
贏唔到	-10353
拎埋	-10354
男孩	-10355
唔能夠	-10356
大軍	-10357
引戰	-10358
經紀	-10359
考生	-10360
三點	-10361
綠燈	-10362
人憎	-10363
終止	-10364
高的	-10365
曹操	-10366
有唔同	-10367
啦仲	-10368
爾蘭	-10369
▁因為你	-10370
扮曬	-10371
了起來	-10372
推開	-10373
正仆街	-10374
其實係咪	-10375
都係自己	-10376
放寬	-10377
面子	-10378
一九	-10379
翻工	-10380
都係講	-10381
一股	-10382
係手	-10383
沉重	-10384
之心	-10385
嚟㗎	-10386
十次	-10387
係入面	-10388
巴絲打	-10389
只限	-10390
潮流	-10391
弱智仔	-10392
▁咁即係	-10393
你玩	-10394
賽前	-10395
追住	-10396
多幾個	-10397
不反	-10398
運動場	-10399
公民黨	-10400
對佢地	-10401
法師	-10402
讀大學	-10403
嚴正	-10404
海底	-10405
觀感	-10406
輕微	-10407
▁你不如	-10408
.4	-10409
忍不住	-10410
教主	-10411
▁打完	-10412
罷課	-10413
複製	-10414
⣿⣿⣿⣿	-10415
做開	-10416
幾時有	-10417
▁好多時	-10418
共和黨	-10419
放入	-10420
4-5	-10421
唯獨	-10422
身形	-10423
連燈	-10424
如同	-10425
定假	-10426
民政	-10427
進修	-10428
鏡粉	-10429
處境	-10430
貓貓	-10431
都收	-10432
長嘅	-10433
岀嚟	-10434
止暴	-10435
1400	-10436
▁但而家	-10437
死後	-10438
話想	-10439
唔好比	-10440
都好好	-10441
齊上齊	-10442
▁油	-10443
▁發	-10444
來往	-10445
建造	-10446
會喺	-10447
信佢	-10448
前嘅	-10449
350	-10450
遊樂場	-10451
五金	-10452
條龍	-10453
啲垃圾	-10454
開開心心	-10455
▁和	-10456
千人	-10457
嘅話就	-10458
目標係	-10459
航空公司	-10460
最差	-10461
長老	-10462
但因為	-10463
係事實	-10464
剛好	-10465
老狗	-10466
血管	-10467
補償	-10468
456	-10469
細嘅	-10470
先用	-10471
名校	-10472
後續	-10473
牌照	-10474
仲好意思	-10475
雜種	-10476
擴張	-10477
救到	-10478
深黃	-10479
走勢	-10480
咗人	-10481
都未知	-10482
之前嘅	-10483
好危險	-10484
10.1	-10485
好悶	-10486
揭發	-10487
但而家	-10488
實驗室	-10489
幫拖	-10490
幾咁	-10491
我連	-10492
遇過	-10493
潛在	-10494
係人地	-10495
好少少	-10496
我啲	-10497
▁的確	-10498
任何一個	-10499
個間	-10500
因果	-10501
但最後	-10502
懶得	-10503
買返	-10504
嘴巴	-10505
拿起	-10506
通脹	-10507
極都	-10508
歲嘅	-10509
繁殖	-10510
唔屌	-10511
入獄	-10512
大膽	-10513
封面	-10514
搞成咁	-10515
又講	-10516
▁文宣	-10517
逼人	-10518
事嘅	-10519
年間	-10520
開返	-10521
無人知	-10522
水喉	-10523
復合	-10524
▁梗係	-10525
▁選舉	-10526
打柒	-10527
唔單止	-10528
同志	-10529
鮮血	-10530
謊言	-10531
解決方法	-10532
來看	-10533
儲備	-10534
範疇	-10535
▁不要	-10536
對應	-10537
扶手	-10538
買嘅	-10539
懷孕	-10540
你在	-10541
▁50	-10542
不過佢	-10543
怪怪	-10544
換到	-10545
出返	-10546
。。。。。	-10547
留學	-10548
洗版	-10549
變數	-10550
防護	-10551
齊上齊落	-10552
睇吓有冇	-10553
一見	-10554
係咩玩法	-10555
兩大	-10556
感想	-10557
跟蹤	-10558
開大	-10559
月開始	-10560
坐咗	-10561
調轉	-10562
有一定	-10563
復興	-10564
咁嘅樣	-10565
曾在	-10566
僕你個街	-10567
再一次	-10568
等佢地	-10569
政府部門	-10570
遮打花園	-10571
一番	-10572
細菌	-10573
好好睇	-10574
唔會係	-10575
特別是	-10576
親手	-10577
點計	-10578
強勢	-10579
電力	-10580
黑龍	-10581
太差	-10582
番佢	-10583
走數	-10584
遊龍	-10585
入院	-10586
▁果時	-10587
儲到	-10588
打返	-10589
弟弟	-10590
睇片	-10591
納稅	-10592
而來	-10593
好低	-10594
狗車	-10595
第七	-10596
出新	-10597
之前已經	-10598
搵得	-10599
著的	-10600
日版	-10601
殘酷	-10602
▁咁都	-10603
有唔少	-10604
最早	-10605
▁人類	-10606
何君堯	-10607
執笠	-10608
撚啲	-10609
晏晝	-10610
▁其他人	-10611
指住	-10612
仔都	-10613
正大	-10614
監警會	-10615
打鬥	-10616
放生	-10617
接下來	-10618
浮屍	-10619
我同佢	-10620
感恩	-10621
施丹	-10622
無話	-10623
看似	-10624
六七	-10625
抽咗	-10626
警總	-10627
冇話	-10628
歐國	-10629
更重要	-10630
短期內	-10631
走資	-10632
月薪	-10633
380	-10634
出現過	-10635
加個	-10636
實有	-10637
懂得	-10638
結衣	-10639
嚟玩	-10640
咪有	-10641
多於	-10642
聚會	-10643
輸錢	-10644
問卷	-10645
早排	-10646
可以繼續	-10647
道德高地	-10648
近乎	-10649
你有無	-10650
村屋	-10651
好撚正	-10652
有一半	-10653
正常嘅	-10654
▁唔駛	-10655
你再	-10656
案發	-10657
似的	-10658
你當	-10659
做成	-10660
性交	-10661
賦予	-10662
廣州市	-10663
呢個情況	-10664
認得	-10665
鎖匙	-10666
雨革	-10667
望一望	-10668
▁大部分	-10669
中人	-10670
係新	-10671
唔只	-10672
手尾	-10673
換取	-10674
深深	-10675
至五	-10676
搵緊	-10677
又覺得	-10678
過馬路	-10679
1998	-10680
張紙	-10681
▁長期	-10682
巴利	-10683
▁港女	-10684
低位	-10685
你叫	-10686
▁後面	-10687
受訪者	-10688
暴動罪	-10689
上牀	-10690
分為	-10691
支線	-10692
衰咗	-10693
嘅行動	-10694
國歌法	-10695
▁比你	-10696
性命	-10697
▁一樣	-10698
中槍	-10699
湖南	-10700
有一種	-10701
呢份	-10702
檸檬	-10703
冇辦法	-10704
父幹	-10705
陪伴	-10706
補選	-10707
過癮	-10708
改到	-10709
骨氣	-10710
嘅人係	-10711
▁話時話	-10712
屋邨	-10713
已死	-10714
李嘉誠	-10715
人要	-10716
小米	-10717
生育	-10718
力的	-10719
▁圖	-10720
南部	-10721
嘻嘻	-10722
2500	-10723
小花	-10724
▁姐	-10725
黑錢	-10726
最多都係	-10727
但不	-10728
艾倫	-10729
2047	-10730
▁90	-10731
堅守	-10732
居留	-10733
聽佢	-10734
過於	-10735
頻率	-10736
寫咗	-10737
那邊	-10738
俄國	-10739
散咗	-10740
假新聞	-10741
支持佢	-10742
真係覺得	-10743
吓咁	-10744
張風	-10745
▁謝	-10746
不然	-10747
入息	-10748
焗住	-10749
海報	-10750
光頭佬	-10751
我老母	-10752
賭波	-10753
▁唔好話	-10754
聞到	-10755
小圈子	-10756
就點	-10757
係都要	-10758
唔方便	-10759
佢只係	-10760
▁現場	-10761
仲係度	-10762
唔同咗	-10763
61	-10764
做啲	-10765
名的	-10766
外來	-10767
識咗	-10768
▁經濟	-10769
新型	-10770
:15	-10771
放負	-10772
話曬	-10773
一啲都唔	-10774
東角道	-10775
多了	-10776
懶人	-10777
為我	-10778
笑人	-10779
中期	-10780
通車	-10781
嘅得	-10782
的愛	-10783
衛星	-10784
龍頭	-10785
就係為咗	-10786
相差	-10787
的能力	-10788
負責人	-10789
同無	-10790
紫荊	-10791
如有	-10792
釣魚	-10793
有咩關係	-10794
改變唔到	-10795
勇者	-10796
野都	-10797
出一個	-10798
狀病毒	-10799
搞手	-10800
意識到	-10801
受過	-10802
呢件	-10803
日軍	-10804
(,)	-10805
不妨	-10806
控球	-10807
獵人	-10808
個細路	-10809
萬港元	-10810
____	-10811
92	-10812
ir	-10813
都好正	-10814
政總	-10815
俾人話	-10816
去返	-10817
面目	-10818
▁+	-10819
嚟屌	-10820
▁前排	-10821
▁求其	-10822
解釋吓	-10823
已經要	-10824
動搖	-10825
為由	-10826
大肚	-10827
農民	-10828
我個人	-10829
少量	-10830
自閉	-10831
我真係好	-10832
咗線	-10833
奶奶	-10834
敬軒	-10835
十幾萬	-10836
玻璃心	-10837
冇人知	-10838
有幾難	-10839
往後	-10840
盡頭	-10841
對得住	-10842
一招	-10843
做唔	-10844
剝奪	-10845
搞搞	-10846
佢都會	-10847
做緊咩	-10848
她在	-10849
難關	-10850
模樣	-10851
(4	-10852
殘忍	-10853
膠袋	-10854
訂立	-10855
去醫院	-10856
也很	-10857
話會	-10858
比人笑	-10859
一有	-10860
提堂	-10861
▁我寧願	-10862
▁我都覺得	-10863
壞人	-10864
書店	-10865
▁印度	-10866
翻嚟	-10867
茶餐廳	-10868
呀叔	-10869
差過	-10870
愈多	-10871
▁瞓	-10872
▁所以咪	-10873
都有可能	-10874
兩個星期	-10875
▁內	-10876
需要你	-10877
▁向	-10878
▁直	-10879
俾班	-10880
到明	-10881
接種疫苗	-10882
另有	-10883
奪冠	-10884
閉路電視	-10885
呢幾	-10886
對著	-10887
小心啲	-10888
都睇到	-10889
係靠	-10890
給他	-10891
鬼妹	-10892
▁其中	-10893
下車	-10894
把他	-10895
物價	-10896
冇諗過	-10897
成場	-10898
有樓	-10899
多幾年	-10900
1831	-10901
真係好似	-10902
▁過去	-10903
偷笑	-10904
的表現	-10905
都無問題	-10906
收藏	-10907
出現在	-10908
同中共	-10909
7000	-10910
西瓜	-10911
的世界	-10912
ay	-10913
姿態	-10914
熱愛	-10915
學生妹	-10916
▁再唔係	-10917
微信	-10918
鬥長命	-10919
▁星期日	-10920
過埋	-10921
事物	-10922
▁見過	-10923
混合	-10924
▁網上	-10925
▁做乜	-10926
幫唔到	-10927
點撚樣	-10928
大部分人	-10929
班車	-10930
年來	-10931
與否	-10932
地亞	-10933
狗狗	-10934
貧窮	-10935
▁朱	-10936
升返	-10937
唔低	-10938
▁如果要	-10939
猶如	-10940
高尚	-10941
第一句	-10942
一帶一路	-10943
▁怕	-10944
呃錢	-10945
唱得	-10946
▁屋企人	-10947
▁無啦啦	-10948
去啦	-10949
▁前線	-10950
1929	-10951
探討	-10952
美國政府	-10953
(5	-10954
斯達	-10955
識佢	-10956
化咗	-10957
轉到	-10958
日本妹	-10959
有很多	-10960
大堂	-10961
堅強	-10962
委屈	-10963
棺材	-10964
▁差唔多	-10965
報咗	-10966
,18	-10967
遠遠	-10968
變做	-10969
有乜分別	-10970
寫住	-10971
源自	-10972
▁飲	-10973
廢到	-10974
▁笑死	-10975
拍戲	-10976
點用	-10977
啦咁	-10978
現在的	-10979
最慘	-10980
狗屎	-10981
讀到	-10982
週三	-10983
進場	-10984
佢出嚟	-10985
證明自己	-10986
暴露	-10987
可以喺	-10988
▁傳	-10989
仲多	-10990
兩岸	-10991
咪去	-10992
預先	-10993
分離	-10994
好曬	-10995
射擊	-10996
一下子	-10997
倒不如	-10998
入閘	-10999
西洋	-11000
死撚咗	-11001
佢食	-11002
夥伴	-11003
為錢	-11004
部位	-11005
食環	-11006
或其他	-11007
人流	-11008
小氣	-11009
公司的	-11010
溝到	-11011
19"	-11012
以前咁	-11013
各界	-11014
擔當	-11015
:1.	-11016
戰機	-11017
紫色	-11018
㗎咩	-11019
日內	-11020
幾吓	-11021
跌幅	-11022
銀紙	-11023
自以為	-11024
個有	-11025
夫妻	-11026
後方	-11027
改做	-11028
一回事	-11029
唔中意	-11030
歐元	-11031
額頭	-11032
公眾地方	-11033
我還	-11034
留力	-11035
科大	-11036
▁你有冇	-11037
但我覺得	-11038
分歧	-11039
持久	-11040
放人	-11041
專制	-11042
比率	-11043
)#	-11044
叫聲	-11045
試咗	-11046
四川	-11047
寫嘅	-11048
玫瑰	-11049
舊屎	-11050
‧‧‧	-11051
力度	-11052
地板	-11053
報到	-11054
美食	-11055
點都好	-11056
我沒有	-11057
都幾難	-11058
未見	-11059
最後一個	-11060
失戀	-11061
週期	-11062
自由民主	-11063
康城	-11064
漂亮	-11065
虛假	-11066
範圍內	-11067
加大	-11068
條屍	-11069
境內	-11070
▁"	-11071
追和	-11072
▁個人覺得	-11073
嗰場	-11074
▁啊	-11075
單刀	-11076
工時	-11077
響應	-11078
幫自己	-11079
另一回事	-11080
祖記	-11081
▁廿	-11082
勁到	-11083
北部	-11084
復出	-11085
履行	-11086
拎個	-11087
阿里	-11088
話自己係	-11089
可能真係	-11090
虛偽	-11091
聽人講	-11092
奈何	-11093
擴散	-11094
遺產	-11095
駛唔駛	-11096
一會	-11097
係狗	-11098
賣樓	-11099
▁上場	-11100
場所	-11101
-19	-11102
打劫	-11103
舉手	-11104
30"	-11105
▁另一	-11106
但一	-11107
自住	-11108
小店	-11109
淺藍	-11110
討好	-11111
韓文	-11112
橫掂	-11113
當成	-11114
高調	-11115
唔到嘅	-11116
咁用	-11117
單機	-11118
買飛	-11119
將所有	-11120
家的	-11121
番到	-11122
首相	-11123
星座	-11124
亦不	-11125
▁of	-11126
好鬼	-11127
寫得	-11128
我呀	-11129
攪到	-11130
競選	-11131
自大	-11132
考慮吓	-11133
做就	-11134
制亂	-11135
盛頓	-11136
有人講	-11137
升職	-11138
就話人	-11139
行人路	-11140
學業	-11141
我便	-11142
舊年	-11143
銷量	-11144
限聚	-11145
冠狀病毒	-11146
都開	-11147
綽姿	-11148
哂佢	-11149
狠狠	-11150
男方	-11151
▁想要	-11152
唔撚洗	-11153
/8	-11154
▁感謝	-11155
大公司	-11156
所謂的	-11157
轉向	-11158
想同	-11159
維爾	-11160
嘅諗法	-11161
可以睇	-11162
就差唔多	-11163
幾天	-11164
慶幸	-11165
輔導	-11166
七月	-11167
指導	-11168
嘅存在	-11169
違規	-11170
都玩	-11171
▁哦	-11172
首爾	-11173
原始	-11174
放喺	-11175
靠近	-11176
三千	-11177
咁又	-11178
戰役	-11179
眼罩	-11180
嚟做咩	-11181
多數係	-11182
婚禮	-11183
就唔可以	-11184
封咗	-11185
積分	-11186
▁此外	-11187
有咗	-11188
咗佢啦	-11189
▁硬	-11190
你不	-11191
精華	-11192
買咩	-11193
無人理	-11194
一班人	-11195
上個月	-11196
呢首歌	-11197
幾百蚊	-11198
▁就算係	-11199
呢場運動	-11200
人體	-11201
地嘅	-11202
目擊	-11203
路障	-11204
十幾歲	-11205
化嘅	-11206
平啲	-11207
▁咁不如	-11208
亡國	-11209
原意	-11210
基督徒	-11211
或者係	-11212
▁夜	-11213
中線	-11214
小時內	-11215
紅底	-11216
那星	-11217
都唔太	-11218
關係法	-11219
會變成	-11220
返唔到轉頭	-11221
勒索	-11222
拍手	-11223
同我一齊	-11224
一本	-11225
西面	-11226
▁畀	-11227
入多	-11228
咁叫	-11229
抵屌	-11230
閃電	-11231
撚死人	-11232
令佢地	-11233
平行時空	-11234
出文	-11235
話冇	-11236
係政府	-11237
食吓	-11238
113	-11239
同一時間	-11240
入得	-11241
唔定	-11242
行政費	-11243
見到我	-11244
氣息	-11245
犯案	-11246
身心	-11247
戒指	-11248
西醫	-11249
問責	-11250
繼而	-11251
暗殺	-11252
本能	-11253
紅牌	-11254
要是	-11255
不割蓆	-11256
源於	-11257
要死	-11258
建議你	-11259
一副	-11260
可悲	-11261
熊貓	-11262
有好多人	-11263
上層	-11264
利息	-11265
叫咩名	-11266
出頭	-11267
轉為	-11268
逮捕	-11269
嘅水	-11270
演繹	-11271
咁廢	-11272
獨自	-11273
的說	-11274
門前	-11275
簡直係	-11276
九月	-11277
個感覺	-11278
與中國	-11279
▁廢老	-11280
▁習	-11281
年至	-11282
▁美斯	-11283
香港地	-11284
▁夏	-11285
獸醫	-11286
皇室	-11287
神聖	-11288
7,	-11289
救護員	-11290
直升機	-11291
習慣咗	-11292
一樣的	-11293
2005	-11294
▁係因為	-11295
我很	-11296
打嘅	-11297
乖乖地	-11298
你屋企	-11299
唔過眼	-11300
▁多謝你	-11301
(+	-11302
普及	-11303
種類	-11304
轉換	-11305
過大	-11306
▁全球	-11307
2006	-11308
馬德里	-11309
▁養	-11310
嗰個人	-11311
嘅影響	-11312
覺得有	-11313
難受	-11314
麥當勞	-11315
封閉	-11316
十幾廿	-11317
真子	-11318
起手	-11319
直路	-11320
總有	-11321
個口	-11322
機動	-11323
清水	-11324
牽涉	-11325
食曬	-11326
餘下	-11327
在這個	-11328
司職	-11329
走狗	-11330
上係	-11331
右閘	-11332
合共	-11333
▁一個月	-11334
衝出嚟柒	-11335
全數	-11336
飛去	-11337
街老鼠	-11338
以便	-11339
會想	-11340
▁毒撚	-11341
支持吓	-11342
耳邊	-11343
連位	-11344
勁撚	-11345
如是	-11346
拍賣	-11347
拖到	-11348
淆底	-11349
同路	-11350
男嘅	-11351
走進	-11352
心思	-11353
上一次	-11354
但同時	-11355
陰謀論	-11356
湖北	-11357
嘅政治	-11358
係雞	-11359
太快	-11360
拉到	-11361
做事	-11362
戰隊	-11363
自由行	-11364
永遠唔會	-11365
年到	-11366
年底	-11367
玩膠	-11368
計數	-11369
我愛	-11370
▁肯定	-11371
都仲可以	-11372
輪椅	-11373
野嘅	-11374
必須要	-11375
仲衰過	-11376
應該冇	-11377
拉開	-11378
火星	-11379
得以	-11380
▁射	-11381
季尾	-11382
拉票	-11383
邊度有	-11384
平方公里	-11385
列斯	-11386
啊嘛	-11387
親密	-11388
記招	-11389
▁發夢	-11390
卡通	-11391
圍繞	-11392
手動	-11393
過身	-11394
個角色	-11395
瞓唔到	-11396
互屌	-11397
白金	-11398
明報	-11399
出任	-11400
笑笑	-11401
原因係	-11402
都好正常	-11403
權貴	-11404
衝入	-11405
送貨	-11406
全裸	-11407
合情	-11408
先啱	-11409
出示	-11410
自助	-11411
睇新聞	-11412
撲嘢	-11413
攻擊力	-11414
▁但我覺得	-11415
還可以	-11416
▁布	-11417
為之	-11418
唔對路	-11419
嘅一日	-11420
壓制	-11421
降臨	-11422
高等法院	-11423
家鄉	-11424
十大	-11425
飲品	-11426
都冇所謂	-11427
全盛	-11428
品種	-11429
啲歌	-11430
記載	-11431
▁呢間	-11432
得咁快	-11433
有責任	-11434
128	-11435
出嚟做	-11436
得我一個	-11437
關節	-11438
係外國	-11439
牙醫	-11440
畜牲	-11441
草地	-11442
週日	-11443
散仔	-11444
時表示	-11445
投注	-11446
暴龍	-11447
舊時	-11448
入境處	-11449
恐怖份子	-11450
下班	-11451
何必	-11452
唔好去	-11453
赤納粹	-11454
高分	-11455
龜頭	-11456
巴巴	-11457
哂所有	-11458
魔法師	-11459
四五	-11460
(2)	-11461
仲多過	-11462
小妹	-11463
咗香港	-11464
得幾多	-11465
坐到	-11466
個半	-11467
制止	-11468
私下	-11469
但唔會	-11470
有大量	-11471
第三次	-11472
身邊人	-11473
10"	-11474
ad	-11475
奧巴	-11476
清真	-11477
響度	-11478
有得睇	-11479
佢用	-11480
聽聞	-11481
值錢	-11482
不知幾	-11483
屈服	-11484
影子	-11485
邊會	-11486
黑幫	-11487
傷勢	-11488
流失	-11489
火山	-11490
交界	-11491
媽的	-11492
踏入	-11493
▁你條	-11494
好快就	-11495
怪人	-11496
正門	-11497
臨尾	-11498
▁遲啲	-11499
▁肯	-11500
為例	-11501
補返	-11502
你識	-11503
寫信	-11504
教畜	-11505
波動	-11506
背脊	-11507
愛爾蘭	-11508
精神科	-11509
光明正大	-11510
土瓜	-11511
試試	-11512
重生	-11513
長輩	-11514
保底	-11515
唔夠膽	-11516
丫嘛	-11517
野係	-11518
偷偷地	-11519
完全唔同	-11520
但唔知	-11521
做到咁	-11522
目的係	-11523
連自己	-11524
=5	-11525
月餅	-11526
的影響	-11527
▁呢幾日	-11528
招牌	-11529
冷淡	-11530
將啲	-11531
可以直接	-11532
嘅佢	-11533
本身就	-11534
金剛	-11535
多好多	-11536
賣到	-11537
點係	-11538
大腦	-11539
我只	-11540
被困	-11541
唔喺	-11542
德華	-11543
搞亂	-11544
失分	-11545
唔係咩	-11546
我成日	-11547
諗咁多	-11548
大錢	-11549
即係話	-11550
嘅人都	-11551
對不起	-11552
我亦	-11553
更為	-11554
死神	-11555
走哂	-11556
得很	-11557
表決	-11558
呢首	-11559
踩人	-11560
▁哈	-11561
晨早	-11562
替代	-11563
沙漠	-11564
玩嘅	-11565
▁一邊	-11566
個老母	-11567
有個人	-11568
小子	-11569
街邊	-11570
也好	-11571
喜好	-11572
都要做	-11573
我叫	-11574
比其他	-11575
然後再	-11576
抱著	-11577
架構	-11578
紅隧	-11579
450	-11580
▁得罪講句	-11581
捉咗	-11582
特赦	-11583
以為佢	-11584
神話	-11585
咗好多年	-11586
停下	-11587
勝負	-11588
▁佢唔係	-11589
一羣	-11590
初初	-11591
受損	-11592
門票	-11593
泊車	-11594
▁佢同	-11595
三十年	-11596
不清	-11597
有朋友	-11598
埋口	-11599
失落	-11600
幾條	-11601
由得	-11602
被發現	-11603
脆弱	-11604
分左手	-11605
它的	-11606
講個	-11607
嘅位置	-11608
情人節	-11609
係你自己	-11610
都可以係	-11611
日頭	-11612
晉級	-11613
母語	-11614
講聲	-11615
醒覺	-11616
大帝	-11617
理文	-11618
而在	-11619
▁特別	-11620
就見到	-11621
推論	-11622
相片	-11623
環節	-11624
場景	-11625
戰勝	-11626
反面	-11627
定性	-11628
人地嘅	-11629
都只會	-11630
但這	-11631
開始有	-11632
伯母	-11633
典禮	-11634
反中	-11635
廢人	-11636
是由	-11637
頂多	-11638
▁當日	-11639
先有機會	-11640
咗咁	-11641
洗白	-11642
私怨	-11643
跌落	-11644
遭遇	-11645
老友	-11646
唔好亂	-11647
唔尊重	-11648
一樣可以	-11649
人身攻擊	-11650
任意	-11651
化成	-11652
牧師	-11653
▁蘋果	-11654
反而係	-11655
絕對係	-11656
▁鳩	-11657
某種	-11658
唔一樣	-11659
▁低	-11660
▁福	-11661
▁約	-11662
得益	-11663
貨品	-11664
開啦	-11665
假波	-11666
傳到	-11667
啟德	-11668
撚柒	-11669
搶到	-11670
洪水	-11671
▁巖呀	-11672
未成年	-11673
又嚟	-11674
搵到錢	-11675
/1	-11676
主管	-11677
自拍	-11678
重慶	-11679
▁推薦	-11680
主題曲	-11681
我見到	-11682
新仔	-11683
示意	-11684
種子	-11685
色情	-11686
:23	-11687
每一次	-11688
中超	-11689
我食	-11690
▁澳洲	-11691
一停	-11692
他也	-11693
成晚	-11694
雞翼	-11695
(18	-11696
亦可以	-11697
公職	-11698
訂咗	-11699
麪皮	-11700
:19	-11701
▁61272181183	-11702
個體	-11703
唔易	-11704
沒法	-11705
隱於	-11706
比較多	-11707
代入	-11708
保存	-11709
所為	-11710
-15	-11711
幹擾	-11712
投胎	-11713
又一次	-11714
嘅例子	-11715
同其他人	-11716
未開	-11717
隨住	-11718
曬出嚟	-11719
睇唔	-11720
素人	-11721
乞人憎	-11722
最多人	-11723
當作	-11724
亦可	-11725
夫人	-11726
妹吓	-11727
治理	-11728
雲凡	-11729
嚴肅	-11730
審批	-11731
▁假如	-11732
係應該	-11733
係用嚟	-11734
毅進仔	-11735
ag	-11736
生得	-11737
▁哩	-11738
到啲	-11739
入職	-11740
啖氣	-11741
外判	-11742
航班	-11743
升降機	-11744
都需要	-11745
無心	-11746
]」	-11747
中鋒	-11748
力嘅	-11749
用吓	-11750
打風	-11751
最怕	-11752
一架	-11753
太郎	-11754
檔案	-11755
淪陷	-11756
20"	-11757
有咁嘅	-11758
君主	-11759
無計	-11760
乾地	-11761
的社會	-11762
年半	-11763
就變咗	-11764
你就係	-11765
只剩下	-11766
~」	-11767
唔洗再	-11768
先有用	-11769
做文宣	-11770
上曬	-11771
啱嘅	-11772
為乜	-11773
爭執	-11774
14"	-11775
走佢	-11776
:18	-11777
咁鍾意	-11778
▁p	-11779
同理	-11780
▁00	-11781
去到邊	-11782
91	-11783
前來	-11784
正係	-11785
少見	-11786
帶有	-11787
影像	-11788
欺騙	-11789
法定	-11790
錯嘅	-11791
25%	-11792
巴打你	-11793
個勢	-11794
淪為	-11795
▁真係要	-11796
指向	-11797
改編	-11798
數十	-11799
洗衣	-11800
窗口	-11801
稍為	-11802
指揮官	-11803
尾場	-11804
冇腦	-11805
天光	-11806
會俾	-11807
空虛	-11808
80%	-11809
▁如果你係	-11810
此事	-11811
瞓得	-11812
知情	-11813
止暴制亂	-11814
▁唔知係咪	-11815
古怪	-11816
張開	-11817
▁懷疑	-11818
叫口號	-11819
都唔信	-11820
停課	-11821
為佢	-11822
咪可以	-11823
就一	-11824
唔滿意	-11825
明明係	-11826
兩吓	-11827
外媒	-11828
巴哈	-11829
臺灣的	-11830
▁你試吓	-11831
宵禁	-11832
16"	-11833
請假	-11834
望住我	-11835
仲點	-11836
講我	-11837
▁一嚟	-11838
時事臺	-11839
戇鳩鳩	-11840
廚師	-11841
火魔	-11842
優越	-11843
被殺	-11844
壓抑	-11845
揮手	-11846
門將	-11847
京都	-11848
失波	-11849
現階段	-11850
下屬	-11851
最想	-11852
練到	-11853
24"	-11854
▁下年	-11855
▁明顯	-11856
狗同	-11857
禮頓	-11858
派傳單	-11859
唔可以再	-11860
▁交	-11861
就俾	-11862
老土	-11863
墮樓亡	-11864
光榮	-11865
餓死	-11866
▁咪又係	-11867
都有問題	-11868
本錢	-11869
▁英文	-11870
但係佢	-11871
斯基	-11872
登陸	-11873
食水	-11874
班廢老	-11875
屎啦	-11876
可以試吓	-11877
加到	-11878
土瓜灣	-11879
只需	-11880
發生了	-11881
議事	-11882
商會	-11883
市價	-11884
散步	-11885
疫症	-11886
親共	-11887
17"	-11888
二來	-11889
屌過	-11890
開展	-11891
13"	-11892
▁後尾	-11893
但我們	-11894
▁名	-11895
凝聚	-11896
士多	-11897
婦女	-11898
爭氣	-11899
我希望	-11900
▁睇你	-11901
有自己	-11902
係藍	-11903
衣著	-11904
起佢	-11905
▁係喎	-11906
前度	-11907
果位	-11908
的態度	-11909
延伸	-11910
25"	-11911
佐敦	-11912
故此	-11913
呀婆	-11914
迫人	-11915
難怪	-11916
愛國愛	-11917
▁the	-11918
性感	-11919
拉丁	-11920
視頻	-11921
今日嘅	-11922
離開香港	-11923
▁支共	-11924
咪算囉	-11925
啱啱好	-11926
著想	-11927
好自己	-11928
忍唔到	-11929
+0.5	-11930
場上	-11931
ri	-11932
公審	-11933
崇拜	-11934
解決唔到	-11935
前題	-11936
極為	-11937
他們在	-11938
一頭	-11939
上屆	-11940
前年	-11941
▁食完	-11942
呢個地方	-11943
都唔明點解	-11944
出完	-11945
性行為	-11946
▁貼	-11947
樣本	-11948
債券	-11949
話俾	-11950
手提	-11951
要在	-11952
又成日	-11953
▁德	-11954
又說	-11955
換個	-11956
留咗	-11957
置業	-11958
我一個	-11959
睇吓佢	-11960
先打	-11961
密集	-11962
願榮光	-11963
乜鬼	-11964
派人	-11965
買埋	-11966
剩係識	-11967
一號	-11968
公然	-11969
爆到	-11970
路飛	-11971
▁一次	-11972
個政府	-11973
提前	-11974
仲想點	-11975
嗰堆	-11976
山東	-11977
睇書	-11978
:2020	-11979
好呀	-11980
太低	-11981
血液	-11982
又唔得	-11983
仔係	-11984
又打	-11985
是很	-11986
證書	-11987
$200	-11988
▁我知道	-11989
流通	-11990
好多錢	-11991
一定要有	-11992
社團	-11993
都唔掂	-11994
行行	-11995
新一代	-11996
係日本足球員	-11997
卡斯	-11998
進取	-11999
23"	-12000
蛋白質	-12001
古天	-12002
死撐	-12003
▁大概	-12004
▁心諗	-12005
對他	-12006
當中有	-12007
▁J	-12008
嫌棄	-12009
洗乜	-12010
乜乜柒柒	-12011
七日	-12012
陌生人	-12013
又如何	-12014
錄影	-12015
崗位	-12016
河南	-12017
講解	-12018
鄰國	-12019
▁2014	-12020
搞錯	-12021
病例	-12022
華盛頓	-12023
加成	-12024
缺席	-12025
頭頂	-12026
▁其實點解	-12027
▁潘	-12028
忍到	-12029
納入	-12030
$500	-12031
唔係淨係	-12032
▁賭	-12033
屌屌	-12034
熱鬧	-12035
▁下面	-12036
其實你	-12037
的學生	-12038
人力	-12039
克羅地亞	-12040
11"	-12041
:20	-12042
▁早排	-12043
兩公婆	-12044
巴閉	-12045
18"	-12046
一兩年	-12047
乜都無	-12048
失咗	-12049
廿幾	-12050
自決	-12051
唔係想	-12052
好憎	-12053
和其他	-12054
▁b	-12055
有可	-12056
西環	-12057
有啲咩	-12058
真香港人	-12059
乞食	-12060
好在	-12061
薯條	-12062
都過	-12063
北海道	-12064
文宣組	-12065
另計	-12066
未死	-12067
怨婦	-12068
搞咗	-12069
點都係	-12070
普世價值	-12071
刪除	-12072
求救	-12073
嘅社會	-12074
好地地	-12075
維亞	-12076
▁英超	-12077
幾多年	-12078
嘅巴絲	-12079
得票	-12080
淡淡	-12081
放得	-12082
算好	-12083
的消息	-12084
▁直到	-12085
起點	-12086
遺傳	-12087
緣份	-12088
▁相	-12089
想入	-12090
無睇	-12091
ong	-12092
但自己	-12093
個社會	-12094
都唔多	-12095
中路	-12096
嬲到	-12097
筆記	-12098
從來冇	-12099
兩地	-12100
行事	-12101
統戰	-12102
配套	-12103
的比賽	-12104
主因	-12105
哂啦	-12106
黃埔	-12107
司法覆核	-12108
係點樣	-12109
用水	-12110
▁同佢	-12111
▁多數	-12112
區開花	-12113
抽唔到	-12114
區的	-12115
焦慮	-12116
已經知	-12117
家朗	-12118
是你	-12119
添啦	-12120
呈現	-12121
好大壓力	-12122
令他	-12123
轉做	-12124
▁禾	-12125
氧化	-12126
葉劉	-12127
鬥黃	-12128
主義者	-12129
接到	-12130
贏過	-12131
關愛	-12132
中文大學	-12133
完全唔知	-12134
如常	-12135
傢伙	-12136
撐住	-12137
無聲	-12138
順眼	-12139
4,5	-12140
▁但係我	-12141
一推	-12142
唔畀	-12143
冇所謂	-12144
要注意	-12145
肥絲	-12146
面色	-12147
富汗	-12148
美領	-12149
職責	-12150
咁點解	-12151
:」	-12152
問問	-12153
都唔覺	-12154
吸毒	-12155
敢講	-12156
四個月	-12157
▁講到尾	-12158
本身已經	-12159
起碼有	-12160
一個係	-12161
上網睇	-12162
/2	-12163
匯率	-12164
服從	-12165
賽馬	-12166
駐港	-12167
有否	-12168
都唔出	-12169
係兩回事	-12170
撚野	-12171
▁係咪要	-12172
▁根本就係	-12173
攻中	-12174
督察	-12175
啦仆街	-12176
弱勢	-12177
笑了	-12178
得太多	-12179
一篇	-12180
硬件	-12181
策劃	-12182
警長	-12183
15"	-12184
縱火	-12185
2004	-12186
日韓	-12187
都係我	-12188
你死	-12189
一睇就知	-12190
▁呢個時候	-12191
卡超	-12192
高大	-12193
▁此時	-12194
唔接受	-12195
▁許	-12196
單人	-12197
好型	-12198
巧合	-12199
阿水	-12200
所以佢	-12201
太貴	-12202
關卡	-12203
黑心	-12204
唐人	-12205
存款	-12206
清白	-12207
課室	-12208
連串	-12209
亞洲人	-12210
不理	-12211
互助	-12212
樂趣	-12213
牠們	-12214
話無	-12215
起飛	-12216
▁港鐵	-12217
齊心	-12218
再唔係	-12219
6%	-12220
閃光	-12221
都走	-12222
仲係到	-12223
就啱	-12224
過期	-12225
過頭	-12226
係咪已經	-12227
侍應	-12228
反覆	-12229
一個有	-12230
咁樣做	-12231
軍方	-12232
轉個頭	-12233
之年	-12234
低賤	-12235
世界嘅	-12236
政府工	-12237
近距離	-12238
▁大學	-12239
▁遲吓	-12240
老人院	-12241
渴望	-12242
ve	-12243
尖旺	-12244
國家主席	-12245
▁田	-12246
反政府	-12247
................	-12248
收聲	-12249
政務	-12250
60"	-12251
又少	-12252
打打	-12253
精力	-12254
呢兩日	-12255
應該無	-12256
▁係時候	-12257
TV	-12258
ub	-12259
包袱	-12260
國米	-12261
實事	-12262
幸好	-12263
少少錢	-12264
幫到手	-12265
學野	-12266
▁老貓	-12267
輪流	-12268
抵達	-12269
波都	-12270
▁傾	-12271
形狀	-12272
譬如	-12273
▁揀	-12274
無名	-12275
要將	-12276
阿朗	-12277
▁印象中	-12278
再開	-12279
匯報	-12280
句子	-12281
戲劇	-12282
權者	-12283
▁一年	-12284
兩萬	-12285
唔倒	-12286
畜生	-12287
車頭	-12288
點樣可以	-12289
也能	-12290
跡象	-12291
兩個禮拜	-12292
先行	-12293
逃離	-12294
補給	-12295
▁最大	-12296
▁觀塘	-12297
送咗	-12298
又稱	-12299
家務	-12300
控告	-12301
一定好	-12302
1600	-12303
▁少	-12304
幾廿	-12305
我跟	-12306
分鐘後	-12307
咁嘅人	-12308
▁因此	-12309
的支持	-12310
荔枝角	-12311
空白	-12312
驗證	-12313
錯過	-12314
▁排	-12315
連仔	-12316
的自由	-12317
去唔到	-12318
選委	-12319
▁大埔	-12320
情緒病	-12321
般的	-12322
這名	-12323
個身	-12324
紅燈	-12325
僱員	-12326
帶出	-12327
最易	-12328
本性	-12329
死的	-12330
▁未來	-12331
▁習近平	-12332
人睇	-12333
及後	-12334
智利	-12335
毆打	-12336
螺絲	-12337
▁全民	-12338
港產片	-12339
呎價	-12340
順序	-12341
如果冇	-12342
▁尼	-12343
利率	-12344
嫁禍	-12345
這裏	-12346
飛起	-12347
▁朝早	-12348
,(	-12349
予以	-12350
橫行	-12351
不代表	-12352
的人生	-12353
▁咁係咪	-12354
12"	-12355
政治人物	-12356
▁個時	-12357
最開心	-12358
當佢係	-12359
港共政府	-12360
人情	-12361
果條	-12362
▁時	-12363
收你	-12364
退咗	-12365
聊天	-12366
上大陸	-12367
邊有得	-12368
中毒	-12369
警甴	-12370
的法律	-12371
就一定係	-12372
但對	-12373
脫歐	-12374
▁再加上	-12375
um	-12376
富士	-12377
後排	-12378
才華	-12379
汽水	-12380
貼地	-12381
的內容	-12382
政治立場	-12383
又比	-12384
拼音	-12385
稻草	-12386
人可以	-12387
都唔出奇	-12388
再入	-12389
指點	-12390
巖巖好	-12391
不便	-12392
去曬	-12393
唔哂	-12394
▁24	-12395
中計	-12396
做足	-12397
▁()	-12398
詞語	-12399
講你	-12400
自己會	-12401
惡夢	-12402
照舊	-12403
走先	-12404
哈哈哈	-12405
香港啲	-12406
傳中	-12407
21"	-12408
站起來	-12409
民主國家	-12410
都能	-12411
但好似	-12412
明嘅	-12413
門市	-12414
多年來	-12415
唔勁	-12416
紀元	-12417
港區國安法	-12418
發大	-12419
臺獨	-12420
慈禧	-12421
民事	-12422
肯做	-12423
出入口	-12424
傀儡	-12425
日起	-12426
阻人	-12427
▁我嘅	-12428
不惜	-12429
當前	-12430
東鐵	-12431
案底	-12432
等嘅	-12433
▁今天	-12434
血腥	-12435
唔認同	-12436
▁孫	-12437
▁40	-12438
叫大家	-12439
堵路	-12440
逼害	-12441
飾演	-12442
▁胡	-12443
任職	-12444
1996	-12445
介唔介意	-12446
英皇	-12447
▁大家都係	-12448
吹捧	-12449
咩呀	-12450
感覺上	-12451
不相	-12452
公元	-12453
係最好	-12454
億港元	-12455
孝子	-12456
難免	-12457
咁先	-12458
驚到	-12459
是中國	-12460
被捕者	-12461
罪成	-12462
航母	-12463
大屠殺	-12464
三月	-12465
再搵	-12466
啲片	-12467
算數	-12468
▁25	-12469
蘿蔔	-12470
規範	-12471
通報	-12472
早幾日	-12473
文科	-12474
會打	-12475
返來	-12476
▁更加	-12477
的權利	-12478
2023	-12479
水浸	-12480
細則	-12481
▁人工	-12482
講咁多	-12483
▁來	-12484
呢吓	-12485
建華	-12486
據悉	-12487
識別	-12488
唔比人	-12489
(2	-12490
狼隊	-12491
嘅價值	-12492
依度	-12493
富貴	-12494
忍者	-12495
啦吓話	-12496
線上	-12497
點數	-12498
調返轉	-12499
嘅樣	-12500
旨在	-12501
間學校	-12502
外套	-12503
進來	-12504
拖延	-12505
書包	-12506
耶撚	-12507
就只有	-12508
西斯	-12509
嘅理由	-12510
搞死	-12511
嘅自由	-12512
喜愛	-12513
發作	-12514
一齊做	-12515
五六	-12516
文尼	-12517
標誌	-12518
筆者	-12519
西南	-12520
好耐冇	-12521
南華	-12522
柒吓	-12523
我以前	-12524
適用於	-12525
都不如	-12526
陰陽	-12527
危害國家安全	-12528
天后	-12529
轉轉	-12530
都對	-12531
被視為	-12532
最主要	-12533
會發生	-12534
真雙普選	-12535
何來	-12536
名稱	-12537
外出	-12538
美容	-12539
自古	-12540
委託	-12541
盈利	-12542
▁唱	-12543
體現	-12544
成立獨立調查委員會	-12545
霸王	-12546
▁都要	-12547
投白票	-12548
一成	-12549
望落	-12550
榮耀	-12551
液體	-12552
佢老豆	-12553
▁更何況	-12554
地帶	-12555
日程	-12556
780	-12557
的市民	-12558
生日快樂	-12559
看待	-12560
翻身	-12561
著重	-12562
▁我地要	-12563
熱身	-12564
有呢個	-12565
一夜	-12566
短片	-12567
穿過	-12568
個朋友	-12569
覺唔覺	-12570
之嘛	-12571
反轉	-12572
是次	-12573
迪斯	-12574
馬斯	-12575
▁就咁	-12576
我同你	-12577
正式宣佈	-12578
都係為咗	-12579
銅鑼灣東角道	-12580
一座	-12581
▁想睇	-12582
有人在	-12583
其實已經	-12584
各位手足	-12585
就唔應該	-12586
貨櫃	-12587
40"	-12588
的士佬	-12589
的球員	-12590
甜品	-12591
諗返	-12592
公斤	-12593
太好	-12594
～～～～	-12595
風吹	-12596
減輕	-12597
眼前的	-12598
▁綠	-12599
生氣	-12600
金曲	-12601
和諧	-12602
再多	-12603
合埋	-12604
吓晝	-12605
懶係	-12606
亂鳩	-12607
斯文	-12608
計較	-12609
錯覺	-12610
▁淨	-12611
都係同	-12612
世三	-12613
水位	-12614
起曬	-12615
就收皮	-12616
讓我們	-12617
刑期	-12618
識嘅	-12619
馬仔	-12620
全世界都	-12621
咁柒	-12622
界線	-12623
啱唔啱	-12624
核爆	-12625
港城	-12626
視聽	-12627
有鬼	-12628
玩笑	-12629
白頭	-12630
用唔到	-12631
都叫做	-12632
指甲	-12633
(10	-12634
安心出行	-12635
有佢	-12636
配角	-12637
都好大	-12638
只因	-12639
但卻	-12640
就輸	-12641
幾件	-12642
還錢	-12643
▁呢家	-12644
一波	-12645
傻撚咗	-12646
基亞	-12647
失眠	-12648
印花	-12649
讓他們	-12650
負能量	-12651
混淆	-12652
ter	-12653
管理局	-12654
公署	-12655
灰心	-12656
就繼續	-12657
武警	-12658
咁搞	-12659
...?	-12660
名人	-12661
搬去	-12662
眼濕濕	-12663
一個地方	-12664
▁沒	-12665
友情	-12666
世盃	-12667
偵探	-12668
跟佢	-12669
咁不如	-12670
講道理	-12671
住啲	-12672
四強	-12673
樂部	-12674
神器	-12675
金主	-12676
▁殺	-12677
上樓	-12678
以此	-12679
發光	-12680
輪到	-12681
週五	-12682
驅散	-12683
令香港	-12684
就好了	-12685
▁咁其實	-12686
你都可以	-12687
全香港人	-12688
八月	-12689
起個	-12690
冇人理	-12691
吹下水	-12692
▁612721811831929	-12693
招技	-12694
佢屋企	-12695
佔士	-12696
原創	-12697
是對	-12698
治港	-12699
週二	-12700
真係睇	-12701
扮黃	-12702
開臺	-12703
會更	-12704
▁大把人	-12705
交租	-12706
螢幕	-12707
呢個價	-12708
帶來的	-12709
邊撚個	-12710
警力	-12711
雜物	-12712
有一次	-12713
乒乓	-12714
回港	-12715
小人	-12716
恒指	-12717
留番	-12718
26"	-12719
70"	-12720
條道理	-12721
了他	-12722
尖東	-12723
▁915	-12724
征服	-12725
▁難得	-12726
你地嘅	-12727
考慮到	-12728
推上熱門	-12729
玩樂	-12730
真的是	-12731
拍拍	-12732
重返	-12733
▁你唔好	-12734
▁方	-12735
表哥	-12736
▁佢唔	-12737
係唔同	-12738
將你	-12739
一樣有	-12740
仲要有	-12741
不準	-12742
俾返	-12743
打佢	-12744
西九	-12745
院校	-12746
嘅活動	-12747
助長	-12748
醜聞	-12749
28"	-12750
但她	-12751
哥倫	-12752
就食	-12753
買定	-12754
重演	-12755
喜劇	-12756
愈大	-12757
未完	-12758
直選	-12759
可以自己	-12760
臨時政府	-12761
一制	-12762
邊位	-12763
就仆街	-12764
高人工	-12765
即可	-12766
後門	-12767
都講得出	-12768
電競	-12769
▁乜撚野	-12770
咪仲	-12771
燈光	-12772
坦白講	-12773
▁暗	-12774
推測	-12775
▁做咗	-12776
從來無	-12777
自動波	-12778
賠率	-12779
途人	-12780
食材	-12781
三場	-12782
美人	-12783
一杯	-12784
不入	-12785
不顧	-12786
低估	-12787
平權	-12788
雙腳	-12789
▁...	-12790
又貴	-12791
寄生	-12792
視角	-12793
廣東歌	-12794
▁其實好多	-12795
後會	-12796
頂得	-12797
▁青	-12798
45"	-12799
個國家	-12800
發生緊	-12801
主打	-12802
1100	-12803
早晨	-12804
燒山	-12805
▁呢班	-12806
就算你	-12807
元旦	-12808
▁想買	-12809
幹線	-12810
長洲	-12811
集運	-12812
:59	-12813
商家佬	-12814
啲時間	-12815
高於	-12816
都冇埋	-12817
同居	-12818
拎錢	-12819
失去了	-12820
派發	-12821
越位	-12822
▁打咗	-12823
境外	-12824
用個	-12825
的嗎	-12826
輪換	-12827
嘅學生	-12828
渣車	-12829
不治	-12830
▁拖	-12831
有啲嘢	-12832
嘅死	-12833
招募	-12834
沙灘	-12835
流程	-12836
買嘢	-12837
小白	-12838
時會	-12839
水電	-12840
所屬	-12841
還沒	-12842
黃之鋒	-12843
官媒	-12844
了個	-12845
化的	-12846
抽插	-12847
:45	-12848
特質	-12849
都大把	-12850
爛咗	-12851
還眼	-12852
向他	-12853
野講	-12854
好多年	-12855
好大嘅	-12856
施政報告	-12857
團長	-12858
俱樂部	-12859
冇啦啦	-12860
▁而家係	-12861
住戶	-12862
八九	-12863
爛尾	-12864
艦隊	-12865
護航	-12866
世界的	-12867
火車站	-12868
▁點解我	-12869
oo	-12870
清真寺	-12871
1995	-12872
維拉	-12873
點會有	-12874
火焰	-12875
點前	-12876
27"	-12877
參考吓	-12878
▁收到風	-12879
▁北京	-12880
▁本人	-12881
社交媒體	-12882
踩單車	-12883
嬰兒	-12884
35"	-12885
▁屌我	-12886
就冇事	-12887
姐妹	-12888
要入	-12889
只可	-12890
屙屎	-12891
海南	-12892
的女	-12893
個情況	-12894
咁都唔	-12895
嘅概念	-12896
▁入咗	-12897
同臺灣	-12898
炒價	-12899
▁我屌	-12900
搭地鐵	-12901
的行動	-12902
夠鐘	-12903
步伐	-12904
守則	-12905
狐狸	-12906
過街老鼠	-12907
對戰	-12908
感應	-12909
炒股	-12910
考牌	-12911
我都冇	-12912
追星	-12913
64"	-12914
佢事	-12915
條頸	-12916
機密	-12917
重溫	-12918
對我嚟講	-12919
日落	-12920
神父	-12921
美中	-12922
佢地有	-12923
▁「3.	-12924
收銀	-12925
監製	-12926
單程證	-12927
企硬	-12928
粒子	-12929
都中	-12930
冇耐	-12931
▁上季	-12932
事實係	-12933
城大	-12934
恆大	-12935
暫緩	-12936
那時	-12937
唔知幾時	-12938
▁唐	-12939
低層	-12940
堅尼	-12941
男童	-12942
錦標	-12943
價比	-12944
走入	-12945
野啦	-12946
▁小心	-12947
的男人	-12948
▁另	-12949
再轉	-12950
買佢	-12951
黃牛	-12952
▁係要	-12953
鐘意佢	-12954
各方	-12955
報料	-12956
帶動	-12957
等死	-12958
每星期	-12959
▁721	-12960
▁O	-12961
妒忌	-12962
有了	-12963
迷信	-12964
都多	-12965
直頭係	-12966
其實唔係	-12967
香港人係	-12968
指教	-12969
邊樣	-12970
也不能	-12971
交出	-12972
政制	-12973
其實真係	-12974
住過	-12975
留意吓	-12976
9000	-12977
通告	-12978
有甚麼	-12979
強烈譴責	-12980
快要	-12981
文書	-12982
期貨	-12983
---	-12984
信你	-12985
恆指	-12986
洗咗	-12987
▁呢句	-12988
部電腦	-12989
不易	-12990
講得好	-12991
在家	-12992
轉臺	-12993
▁除非你	-12994
仍是	-12995
流流	-12996
都當	-12997
仲會唔會	-12998
一週	-12999
幾十蚊	-13000
下同	-13001
俾到	-13002
內文	-13003
生生	-13004
真誠	-13005
一家人	-13006
做手術	-13007
獨裁政權	-13008
愛丁堡廣場	-13009
▁絕對	-13010
任期	-13011
有餘	-13012
就將	-13013
只要你	-13014
不行	-13015
唔搭八	-13016
就這樣	-13017
會比人	-13018
豬扒	-13019
喊到	-13020
最後的	-13021
會因為	-13022
摩狗	-13023
走嚟	-13024
嘅態度	-13025
喺你	-13026
▁不過你	-13027
出擊	-13028
聆訊	-13029
過分	-13030
重重	-13031
高價	-13032
唔正常	-13033
▁溫	-13034
散戶	-13035
休息吓	-13036
▁可能佢	-13037
再上	-13038
縱容	-13039
反手	-13040
名叫	-13041
4%	-13042
莉亞	-13043
嘅環境	-13044
無任何	-13045
信和	-13046
變曬	-13047
唔想做	-13048
不推文回覆	-13049
性慾	-13050
的前	-13051
終結	-13052
一見到	-13053
20000	-13054
忽視	-13055
氣體	-13056
睡覺	-13057
="5	-13058
倒地	-13059
克服	-13060
南北	-13061
文盲	-13062
嘅男仔	-13063
▁所以佢	-13064
你說	-13065
班次	-13066
里斯	-13067
三文魚	-13068
係中共	-13069
所有的	-13070
▁我想講	-13071
▁雞	-13072
悲哀	-13073
▁你真係	-13074
堂堂	-13075
已婚	-13076
嘅公司	-13077
都未撚	-13078
四圍	-13079
專一	-13080
政變	-13081
院長	-13082
人地係	-13083
唔包	-13084
而死	-13085
開局	-13086
22"	-13087
便利店	-13088
一一	-13089
停留	-13090
平安夜	-13091
要返工	-13092
▁我屋企	-13093
就唔同	-13094
▁洗唔洗	-13095
▁因為佢地	-13096
要出	-13097
就搞掂	-13098
有得買	-13099
妨礙	-13100
嬲嬲	-13101
差咗	-13102
吸血鬼	-13103
北上	-13104
住緊	-13105
空軍	-13106
造假	-13107
一樣嘅	-13108
到宜家	-13109
同黑警	-13110
國企	-13111
長度	-13112
29"	-13113
重要的	-13114
得來	-13115
而唔	-13116
設有	-13117
走私	-13118
幫推	-13119
發售	-13120
最重要係	-13121
一直在	-13122
限聚令	-13123
大隊	-13124
欠缺	-13125
有冇機會	-13126
!!!!!	-13127
▁迪	-13128
我聽	-13129
籍口	-13130
訴訟	-13131
趕住	-13132
▁4)	-13133
▁就嚟	-13134
唔洗理	-13135
職工	-13136
之星	-13137
減到	-13138
連線	-13139
▁何況	-13140
啲朋友	-13141
一早已經	-13142
廢嘅	-13143
教科	-13144
還原	-13145
嘅做法	-13146
嚟去去	-13147
真的很	-13148
定時	-13149
愉快	-13150
騎兵	-13151
驚人	-13152
一句話	-13153
咗成個	-13154
謹慎	-13155
▁特別係	-13156
動議	-13157
向吓	-13158
會講	-13159
路軌	-13160
佢哋係	-13161
市值	-13162
平息	-13163
搞到自己	-13164
一宗	-13165
對鞋	-13166
劇場版	-13167
環保撚	-13168
7%	-13169
遭受	-13170
大陸妹	-13171
後日	-13172
果個人	-13173
籌備	-13174
送去	-13175
返曬	-13176
速遞	-13177
證明咗	-13178
殺傷	-13179
呂布	-13180
固醇	-13181
嘅過程	-13182
新鮮感	-13183
好定	-13184
路面	-13185
參議院	-13186
都冇事	-13187
▁我今日	-13188
你問	-13189
羅門	-13190
喺連登	-13191
值唔值得	-13192
二嚟	-13193
演講	-13194
優質	-13195
好重	-13196
會輸	-13197
雙子	-13198
。//	-13199
個網	-13200
有你	-13201
珍貴	-13202
要俾	-13203
警司	-13204
15%	-13205
兩年前	-13206
▁•	-13207
低於	-13208
感化	-13209
西區	-13210
大小姐	-13211
我唔識	-13212
我朋友	-13213
有無咩	-13214
的意思	-13215
體育館	-13216
▁慘	-13217
都嚟	-13218
▁市民	-13219
嘅字	-13220
洗碗	-13221
高處	-13222
在網上	-13223
半季	-13224
民黨	-13225
▁你去	-13226
八成	-13227
四月	-13228
後退	-13229
溫層	-13230
摩連奴	-13231
▁你會唔會	-13232
原子	-13233
東南	-13234
考到	-13235
證件	-13236
嗰啲人	-13237
永遠都	-13238
都唔知點	-13239
上環	-13240
小食	-13241
買啦	-13242
掛住佢	-13243
歸香港	-13244
自己是	-13245
孤兒	-13246
幾位	-13247
▁與其	-13248
擅長	-13249
8.5	-13250
無助	-13251
誠信	-13252
返緊	-13253
這時	-13254
遞交	-13255
50"	-13256
口岸	-13257
嗰位	-13258
派對	-13259
轉介	-13260
咁係	-13261
天份	-13262
早知	-13263
主持人	-13264
過曬	-13265
▁恭喜	-13266
過自己	-13267
而又	-13268
賠錢	-13269
過渡	-13270
..「	-13271
轉彎	-13272
保險公司	-13273
送往	-13274
▁第四	-13275
就沒有	-13276
2002	-13277
▁。	-13278
又贏	-13279
累計	-13280
一言	-13281
好叻	-13282
牛仔	-13283
個故事	-13284
話唔定	-13285
分別係	-13286
都好少	-13287
痛楚	-13288
唔知會唔會	-13289
同女	-13290
打中	-13291
誤解	-13292
側邊	-13293
先睇	-13294
合體	-13295
講述	-13296
阻力	-13297
▁好啦	-13298
分鐘內	-13299
就此	-13300
愛上	-13301
適用	-13302
而成	-13303
佢而家	-13304
的結果	-13305
話佢地	-13306
頂唔住	-13307
高度自治	-13308
嗰次	-13309
答道	-13310
千其	-13311
建宗	-13312
做一個	-13313
唔係有	-13314
死亡率	-13315
▁呢條友	-13316
恒大	-13317
想要嘅	-13318
就識	-13319
自知	-13320
華潤	-13321
▁你用	-13322
▁佢真係	-13323
好爽	-13324
實物	-13325
..........	-13326
碩士	-13327
過啦	-13328
個都	-13329
搞大	-13330
時裝	-13331
框架	-13332
醒起	-13333
嘅選擇	-13334
韓國人	-13335
呢啲垃圾	-13336
唔妥	-13337
軍火	-13338
交所	-13339
▁隨時	-13340
歲以下	-13341
大家都好	-13342
▁特	-13343
落樓	-13344
還拖	-13345
是一種	-13346
死都要	-13347
就讀	-13348
又唔敢	-13349
燒味	-13350
用字	-13351
過個	-13352
放映會	-13353
五百	-13354
就上	-13355
有何	-13356
都很	-13357
食啦	-13358
▁我個人	-13359
越來越多	-13360
入住	-13361
發生的	-13362
提你	-13363
海岸	-13364
發掘	-13365
我就會	-13366
原先	-13367
有數	-13368
兩集	-13369
罐頭	-13370
▁對家	-13371
社會嘅	-13372
痕跡	-13373
黑麪	-13374
巴拿	-13375
密度	-13376
最正	-13377
▁咗膠	-13378
根本唔	-13379
1800	-13380
伸出	-13381
我怕	-13382
通常係	-13383
營造	-13384
有啲似	-13385
每一個人	-13386
▁就係因為	-13387
疑點	-13388
工作者	-13389
又唔好	-13390
講嘅嘢	-13391
三位	-13392
廢佬	-13393
正一	-13394
永恆	-13395
週四	-13396
都係咁諗	-13397
箭咀	-13398
蝙蝠	-13399
之後佢	-13400
運動會	-13401
▁我認為	-13402
成分	-13403
ec	-13404
的光	-13405
首要	-13406
見律師	-13407
有分	-13408
其實可以	-13409
冷門	-13410
祖先	-13411
你老母咩	-13412
證供	-13413
但佢地	-13414
好奇怪	-13415
黑人憎	-13416
蒙特	-13417
123	-13418
唔好俾	-13419
啊啊啊啊	-13420
狗官	-13421
▁佢啲	-13422
無差別	-13423
離開了	-13424
9,	-13425
娃娃	-13426
不要再	-13427
無端端	-13428
真槍	-13429
講就	-13430
財團	-13431
資料庫	-13432
呢段時間	-13433
坐緊	-13434
理事	-13435
幫下手	-13436
得幾好	-13437
特首林鄭月娥	-13438
日記	-13439
親生	-13440
都唔要	-13441
仲咁	-13442
修復	-13443
190	-13444
唔做野	-13445
起碼要	-13446
▁上星期	-13447
搶救	-13448
物流	-13449
的她	-13450
公信	-13451
親眼	-13452
四人	-13453
你老豆	-13454
對方的	-13455
▁儲	-13456
嚴厲	-13457
好運	-13458
改進	-13459
死死	-13460
人優惠	-13461
是香港	-13462
係連	-13463
內鬥	-13464
嚇得	-13465
暴雨	-13466
法文	-13467
細妹	-13468
充足	-13469
睇死	-13470
容忍	-13471
沒人	-13472
返上去	-13473
中國人民	-13474
家產	-13475
對決	-13476
年華	-13477
考完	-13478
to	-13479
土生	-13480
普京	-13481
▁後生	-13482
話香港	-13483
▁之前有	-13484
係正	-13485
▁你嘅	-13486
叉燒	-13487
噁心	-13488
戒嚴	-13489
海邊	-13490
啦喎	-13491
聽晚	-13492
▁年年	-13493
:00-	-13494
你隻	-13495
切勿	-13496
列入	-13497
福特	-13498
達尼	-13499
體重	-13500
成日講	-13501
唔係應該	-13502
交由	-13503
呢刻	-13504
幾張	-13505
條毛	-13506
炮臺	-13507
賭博	-13508
點鐘	-13509
冇乜人	-13510
▁你諗吓	-13511
抑或	-13512
樂天	-13513
點去	-13514
同佢哋	-13515
基金會	-13516
一開始就	-13517
揹包	-13518
話好	-13519
陸軍	-13520
日出	-13521
▁就咁睇	-13522
▁禁	-13523
比多	-13524
開冷氣	-13525
▁我本身	-13526
中央政府	-13527
/12/2019(	-13528
張敬軒	-13529
比人炒	-13530
勁啲	-13531
▁女仔	-13532
的要求	-13533
咬人	-13534
跟足	-13535
我地就	-13536
一絲	-13537
懶人包	-13538
▁沈	-13539
下載	-13540
個次	-13541
落在	-13542
嘅事實	-13543
都唔代表	-13544
削弱	-13545
應該唔係	-13546
幾倍	-13547
最貴	-13548
40%	-13549
▁抵	-13550
牛牛	-13551
藥水	-13552
中三	-13553
更改	-13554
果樣	-13555
畫畫	-13556
仲未有	-13557
口頭	-13558
看得	-13559
▁曼聯	-13560
咗佢地	-13561
壓力大	-13562
所以冇	-13563
石屎	-13564
▁跟本	-13565
咁係咪	-13566
打邊爐	-13567
講起	-13568
有冇用	-13569
買唔買	-13570
手掌	-13571
激嬲	-13572
9.5	-13573
個個月	-13574
因為要	-13575
過世	-13576
帶佢	-13577
腸胃	-13578
華爾	-13579
賭錢	-13580
曬時間	-13581
▁蔡	-13582
坐係	-13583
刑罰	-13584
回顧	-13585
漠視	-13586
落腳	-13587
關門	-13588
唔知做乜	-13589
已成	-13590
糾纏	-13591
還手	-13592
防水	-13593
▁有無人知	-13594
個底	-13595
想你	-13596
歲人	-13597
天花板	-13598
都好有	-13599
▁趁	-13600
迴旋	-13601
離職	-13602
係邊度	-13603
私底下	-13604
佔據	-13605
地價	-13606
果班人	-13607
打疫苗	-13608
人民日報	-13609
安門	-13610
長髮	-13611
一兩日	-13612
不嬲都	-13613
失效	-13614
好怕	-13615
復刻	-13616
又盛	-13617
卻沒有	-13618
我覺得係	-13619
有圖	-13620
係咁講	-13621
兩條友	-13622
成千	-13623
波特	-13624
諾貝爾	-13625
麻木	-13626
▁即	-13627
做曬	-13628
好唔同	-13629
共鳴	-13630
淡友	-13631
新城市	-13632
留學生	-13633
插入	-13634
搵番	-13635
球季	-13636
要加	-13637
倒退	-13638
兩房	-13639
鬧人	-13640
打爛	-13641
唔好太	-13642
鄧炳強	-13643
▁客	-13644
到處	-13645
較為	-13646
頭角	-13647
阿富汗	-13648
你你	-13649
芬蘭	-13650
仲唔係	-13651
報價	-13652
研究所	-13653
伯伯	-13654
刷角	-13655
,11	-13656
電筒	-13657
半山	-13658
如果無	-13659
塊地	-13660
分組賽	-13661
噴霧	-13662
店主	-13663
▁我見到	-13664
活在	-13665
理工大學	-13666
西波	-13667
頭條	-13668
做緊乜	-13669
玩死	-13670
紅館	-13671
你個名	-13672
的發展	-13673
你未	-13674
對美國	-13675
英文版	-13676
不必	-13677
個西	-13678
當面	-13679
轉車	-13680
▁被告	-13681
信得過	-13682
可以將	-13683
習總	-13684
跪求	-13685
登場	-13686
諗返起	-13687
▁我唔想	-13688
薪酬	-13689
嘅角度	-13690
做大	-13691
前世	-13692
吐露	-13693
咪知	-13694
你啊	-13695
先肯	-13696
常常	-13697
做得好好	-13698
唔投	-13699
踢緊	-13700
癡咗線	-13701
的表情	-13702
嘢做	-13703
死心	-13704
咩都冇	-13705
嘅自己	-13706
心理學	-13707
又平	-13708
▁只是	-13709
先巖	-13710
我覺得佢	-13711
軌道	-13712
軍團	-13713
這樣做	-13714
都係由	-13715
▁大家都	-13716
嘅波	-13717
不說	-13718
好氣	-13719
拋棄	-13720
一百萬	-13721
身上的	-13722
冷處理	-13723
最簡單	-13724
▁企	-13725
教導	-13726
跟風	-13727
車手	-13728
飯盒	-13729
▁執	-13730
尊敬	-13731
戰友	-13732
當咗	-13733
表格	-13734
▁如果係咁	-13735
付款	-13736
平價	-13737
▁中華	-13738
▁出嚟	-13739
去咗邊	-13740
我想問	-13741
團聚	-13742
是他	-13743
內力	-13744
常威	-13745
攝影師	-13746
人權法案	-13747
因為係	-13748
打靶	-13749
病發	-13750
高音	-13751
▁我的	-13752
我老豆	-13753
一個國家	-13754
80"	-13755
下世	-13756
任由	-13757
要繼續	-13758
還沒有	-13759
唔帶	-13760
果份	-13761
都重	-13762
肚痛	-13763
護級	-13764
戇撚鳩	-13765
我即刻	-13766
是甚麼	-13767
收場	-13768
詐騙	-13769
唔出嚟	-13770
幫香港	-13771
中曬	-13772
小平	-13773
玩開	-13774
訂閱	-13775
(16	-13776
1:0	-13777
就無事	-13778
任命	-13779
大路	-13780
小將	-13781
果段	-13782
瓦解	-13783
翌日	-13784
落個	-13785
▁唔敢	-13786
我都無	-13787
一行	-13788
住喺	-13789
步行	-13790
添呀	-13791
各方面	-13792
▁幾年前	-13793
返到去	-13794
禁錮	-13795
31"	-13796
部分人	-13797
內向	-13798
到就	-13799
創立	-13800
十蚊	-13801
我今日	-13802
最大問題	-13803
▁不過如果	-13804
咗兩	-13805
▁/	-13806
剋制	-13807
自家	-13808
唔好以為	-13809
!?」	-13810
溝唔到	-13811
粉紅色	-13812
前線手足	-13813
蝕錢	-13814
▁唔計	-13815
消失咗	-13816
專武	-13817
插水	-13818
好感動	-13819
月亮	-13820
舊野	-13821
跑得	-13822
做嘅嘢	-13823
年中	-13824
自語	-13825
/19	-13826
看不到	-13827
▁於	-13828
相互	-13829
都追	-13830
現狀	-13831
設置	-13832
過年	-13833
康文	-13834
▁前幾日	-13835
呢幾個月	-13836
之名	-13837
十倍	-13838
我把	-13839
早幾年	-13840
睇電視	-13841
(3	-13842
咪再	-13843
彈性	-13844
係咪好	-13845
做咩要	-13846
▁星期六	-13847
好多地方	-13848
的水	-13849
陰公	-13850
(22	-13851
又高	-13852
遊記	-13853
▁但係佢	-13854
不當	-13855
成套	-13856
張無忌	-13857
返出去	-13858
▁民主黨	-13859
人優惠回贈	-13860
三名	-13861
啲相	-13862
▁有心	-13863
▁關於	-13864
勒斯坦	-13865
不怕	-13866
偷渡	-13867
吹咩	-13868
填詞	-13869
最憎	-13870
果張	-13871
85"	-13872
將其	-13873
訂單	-13874
隻驚	-13875
▁諗吓	-13876
出咗嚟	-13877
一定唔係	-13878
真係癡撚線	-13879
入圍	-13880
同新	-13881
大笑	-13882
選舉委員會	-13883
賣得	-13884
那就	-13885
驚你	-13886
99"	-13887
供應商	-13888
同日本	-13889
巴打們	-13890
第一次見	-13891
發炎	-13892
政局	-13893
可以換	-13894
嗰條	-13895
羞恥	-13896
大撚把	-13897
舒適	-13898
除外	-13899
及其他	-13900
希望有	-13901
申請人	-13902
同冇	-13903
而無	-13904
自言	-13905
農場	-13906
可以幫手	-13907
可以話係	-13908
刺客	-13909
孤立	-13910
著名	-13911
所以你	-13912
表面上	-13913
.....」	-13914
之王	-13915
全城	-13916
可以比	-13917
點都有	-13918
法則	-13919
77"	-13920
唔洗咁	-13921
▁事實係	-13922
▁都唔係	-13923
掩護	-13924
睡眠	-13925
管轄	-13926
▁由細	-13927
愛狗	-13928
玩返	-13929
都唔俾	-13930
1300	-13931
】【	-13932
咩咩	-13933
結算	-13934
88"	-13935
可接受	-13936
香港咁	-13937
家底	-13938
75"	-13939
的重要	-13940
犯賤	-13941
33"	-13942
▁家陣	-13943
都不是	-13944
點都唔會	-13945
大方	-13946
撕裂	-13947
細良	-13948
身在	-13949
▁唔止	-13950
鍾意食	-13951
會唔會太	-13952
▁銀	-13953
作業	-13954
悲傷	-13955
選出	-13956
一派	-13957
再問	-13958
快感	-13959
龍珠	-13960
大增	-13961
經已	-13962
皮啦	-13963
英國佬	-13964
▁會唔會係	-13965
回想	-13966
瑪麗	-13967
發咗	-13968
▁衰	-13969
二個	-13970
支槍	-13971
點名	-13972
國的	-13973
畀錢	-13974
纔有	-13975
90"	-13976
控制到	-13977
▁渣	-13978
安靜	-13979
葵芳	-13980
▁離開	-13981
嘅作品	-13982
中史	-13983
但會	-13984
文憑	-13985
起樓	-13986
有無諗過	-13987
▁交通	-13988
係咪都	-13989
排緊	-13990
爆機	-13991
點呀	-13992
多利亞	-13993
千里	-13994
嘅樓	-13995
▁消防	-13996
都係打	-13997
撞正	-13998
的高	-13999
點解我	-14000
▁不如你	-14001
▁我一直	-14002
做得唔好	-14003
已知	-14004
熊仔	-14005
▁到而家	-14006
用開	-14007
積金	-14008
8-	-14009
固然	-14010
波波	-14011
車尾	-14012
車撞	-14013
他表示	-14014
未必係	-14015
發文	-14016
逼到	-14017
成為了	-14018
保衛	-14019
幾高	-14020
樂意	-14021
行貨	-14022
▁成件事	-14023
個龍	-14024
剩返	-14025
家軍	-14026
34"	-14027
▁代表	-14028
你又唔	-14029
我幫你	-14030
真心膠	-14031
im	-14032
入選	-14033
大市	-14034
諸葛	-14035
▁緊係	-14036
巴基斯坦	-14037
▁練	-14038
定啲	-14039
咁即係	-14040
奮鬥	-14041
骨折	-14042
管理費	-14043
也被	-14044
全名	-14045
心知	-14046
提倡	-14047
你班仆街	-14048
升值	-14049
招式	-14050
飛彈	-14051
馬車	-14052
只要有	-14053
新聞自由	-14054
區區	-14055
受苦	-14056
咪要	-14057
安法	-14058
很久	-14059
放水	-14060
神作	-14061
船長	-14062
ers	-14063
▁有機會	-14064
em	-14065
南美	-14066
大字	-14067
用番	-14068
迷宮	-14069
陳述	-14070
隻雞	-14071
▁好驚	-14072
中文版	-14073
▁讓	-14074
公公	-14075
就拎	-14076
梓樂	-14077
金色	-14078
中位數	-14079
嚟講係	-14080
成為咗	-14081
▁我覺得佢	-14082
女巫	-14083
好嘢	-14084
在下	-14085
大劍	-14086
的說法	-14087
大家都有	-14088
友善	-14089
天賦	-14090
定咗	-14091
接管	-14092
海水	-14093
至終	-14094
識分	-14095
鋼琴	-14096
黃屍	-14097
外傳	-14098
99」	-14099
唔該曬	-14100
洗黑錢	-14101
更快	-14102
煤氣	-14103
相見	-14104
試用	-14105
的身體	-14106
肯唔肯	-14107
真心覺得	-14108
合成	-14109
咁唔	-14110
巿民	-14111
排第	-14112
佢地自己	-14113
者嘅	-14114
▁袁	-14115
交給	-14116
心動	-14117
講清楚	-14118
搜索	-14119
黑洞	-14120
點先可以	-14121
係俾	-14122
緊緊	-14123
偽善	-14124
無撚	-14125
個個都話	-14126
可能因為	-14127
型號	-14128
射到	-14129
▁防	-14130
偏見	-14131
未出	-14132
▁唔理	-14133
陪審員	-14134
摺埋	-14135
江山	-14136
單手	-14137
▁分手	-14138
▁梅	-14139
暴大	-14140
三個人	-14141
一步一步	-14142
▁塞	-14143
不去	-14144
化為	-14145
▁對方	-14146
喺街	-14147
上前線	-14148
理性討論	-14149
你所	-14150
抖吓	-14151
有班人	-14152
真係唔識	-14153
後先	-14154
消息人士	-14155
住咁	-14156
此舉	-14157
躺在	-14158
▁13.	-14159
人中	-14160
要開	-14161
用呢個	-14162
挪威	-14163
十歲	-14164
落山	-14165
股份有限公司	-14166
ow	-14167
玩咩	-14168
買得	-14169
▁你而家	-14170
2:	-14171
語音	-14172
看過	-14173
▁「-	-14174
休班警	-14175
支付寶	-14176
心裏	-14177
發育	-14178
▁基本	-14179
▁笑撚死	-14180
搞咁多野	-14181
話說	-14182
賺咗	-14183
配件	-14184
▁除了	-14185
去諗	-14186
模仿	-14187
歡喜	-14188
▁牙朗	-14189
搞到佢	-14190
的資料	-14191
都無埋	-14192
▁如果冇	-14193
身份認同	-14194
兩家	-14195
要贏	-14196
整個人	-14197
無諗過	-14198
古路	-14199
肩膀	-14200
胸口	-14201
咗閘	-14202
守衛	-14203
係需要	-14204
嘅歷史	-14205
好意思	-14206
戲份	-14207
買嚟	-14208
係咪都係	-14209
內外	-14210
咁長	-14211
完個	-14212
趙敏	-14213
20-	-14214
▁鐵	-14215
先最	-14216
易啲	-14217
極高	-14218
恐怖主義	-14219
ation	-14220
學士	-14221
將我	-14222
▁巴打你	-14223
擋住	-14224
▁講起	-14225
知名度	-14226
賣港賊	-14227
自己睇	-14228
▁公務員	-14229
少咗好多	-14230
世事	-14231
聖人	-14232
近戰	-14233
短時間內	-14234
▁至	-14235
中五	-14236
亞視	-14237
維權	-14238
▁為了	-14239
巨大的	-14240
世一	-14241
就行	-14242
纔可	-14243
嘅風險	-14244
失業率	-14245
英鎊	-14246
係好難	-14247
兩天	-14248
5-6	-14249
唔好成日	-14250
主意	-14251
唔好打	-14252
一筆	-14253
伊巴	-14254
充斥	-14255
勝出	-14256
司徒	-14257
同佢傾	-14258
世間	-14259
以家	-14260
屌閪	-14261
線索	-14262
係班	-14263
厭惡	-14264
掂到	-14265
莉莉	-14266
自己又	-14267
可以考慮	-14268
救世	-14269
▁身為	-14270
大使館	-14271
▁捉	-14272
▁成日話	-14273
一格	-14274
挽回	-14275
長江	-14276
▁陣間	-14277
事咩	-14278
為咩	-14279
老美	-14280
做任何	-14281
唔好買	-14282
講到尾	-14283
槓桿	-14284
▁馬會	-14285
的做法	-14286
放風	-14287
華社	-14288
呢種人	-14289
書面語	-14290
私人屋苑	-14291
契仔	-14292
沒收	-14293
熱烈	-14294
野飲	-14295
之後有	-14296
維他	-14297
質問	-14298
風雲	-14299
食完飯	-14300
個好	-14301
功力	-14302
啲咁嘅	-14303
加時	-14304
接駁	-14305
睇唔出	-14306
社會的	-14307
唔知有冇	-14308
▁蕭	-14309
定居	-14310
延遲	-14311
▁仲話	-14312
更加要	-14313
車主	-14314
附加	-14315
咪撚再	-14316
唔建議	-14317
問題啦	-14318
ille	-14319
香港經濟	-14320
ie	-14321
寫下	-14322
軍政府	-14323
鍾意你	-14324
大粒	-14325
俾人笑	-14326
想換	-14327
會以	-14328
遠射	-14329
十幾個	-14330
就好難	-14331
出院	-14332
樂器	-14333
油塘	-14334
法甲	-14335
咗幾年	-14336
嘅責任	-14337
就唔會有	-14338
ce	-14339
性病	-14340
狗係	-14341
過百	-14342
都拎	-14343
食女	-14344
一條友	-14345
支那仔	-14346
企得	-14347
已經覺得	-14348
唱功	-14349
的路	-14350
看着	-14351
藉此	-14352
還擊	-14353
70%	-14354
鍾意睇	-14355
轉返	-14356
會有咩	-14357
玩撚完	-14358
▁其實有	-14359
▁m	-14360
▁吉	-14361
就停	-14362
我明	-14363
氣旋	-14364
越好	-14365
咁重要	-14366
=4	-14367
排斥	-14368
案情	-14369
連尼	-14370
時間同	-14371
會比較	-14372
習大大	-14373
啤梨	-14374
場比賽	-14375
話佢係	-14376
軟弱	-14377
買返嚟	-14378
▁新加坡	-14379
仲衰	-14380
再生	-14381
品味	-14382
啦佢	-14383
唔割	-14384
急住	-14385
一打	-14386
放開	-14387
▁我都想知	-14388
擾亂	-14389
癌症	-14390
嘅目的	-14391
▁60	-14392
的眼神	-14393
核心價值	-14394
壽命	-14395
英冠	-14396
▁另一個	-14397
講到好似	-14398
兩點	-14399
安寧	-14400
▁見佢	-14401
外圍賽	-14402
希特拉	-14403
▁希望你	-14404
冇計	-14405
左派	-14406
跟他	-14407
有咩所謂	-14408
思路	-14409
▁你同	-14410
眾議院	-14411
勇武手足	-14412
Ch	-14413
(17	-14414
唔洗諗	-14415
集合地點	-14416
人選	-14417
係死	-14418
偶然	-14419
嘅書	-14420
東莞	-14421
歡呼	-14422
王朝	-14423
唔換	-14424
說著	-14425
但依家	-14426
比香港	-14427
係錯	-14428
想學	-14429
開啟	-14430
阿龔	-14431
未必會	-14432
公立醫院	-14433
見工	-14434
▁一睇	-14435
真係唔會	-14436
鍵盤戰士	-14437
▁香港警察	-14438
拖垮	-14439
▁睇過	-14440
前已經	-14441
性價比	-14442
▁咁多人	-14443
拍緊	-14444
10.5	-14445
半一	-14446
巡邏	-14447
混入	-14448
白紙	-14449
識用	-14450
▁但個	-14451
在你	-14452
未聽過	-14453
大腿	-14454
活著	-14455
▁同埋佢	-14456
▁歐	-14457
取向	-14458
放曬	-14459
大陸佬	-14460
到咁上下	-14461
到嚟	-14462
屠龍	-14463
警民	-14464
閪咩	-14465
[0/	-14466
▁鐘意	-14467
審理	-14468
帶嚟	-14469
星球	-14470
改名做	-14471
本地人	-14472
的目標	-14473
到來	-14474
得掂	-14475
愛滋	-14476
直覺	-14477
▁80	-14478
▁我又	-14479
太刀	-14480
幾球	-14481
派息	-14482
九唔搭八	-14483
分裂國家	-14484
另一個人	-14485
▁有好多	-14486
告急	-14487
套裝	-14488
檢視	-14489
車上	-14490
已經唔	-14491
都正常	-14492
▁我老母	-14493
可能會有	-14494
#5	-14495
相關的	-14496
自己唔	-14497
炒到	-14498
送錢	-14499
89"	-14500
有無巴打	-14501
星馳	-14502
約會	-14503
舉例	-14504
條款及	-14505
有罪	-14506
消除	-14507
總算	-14508
有不少	-14509
▁其實香港	-14510
對政府	-14511
點解唔可以	-14512
丹尼	-14513
種票	-14514
▁有無諗過	-14515
+3	-14516
冬季	-14517
失球	-14518
混血	-14519
返好	-14520
是沒有	-14521
▁豬	-14522
跑去	-14523
闖入	-14524
:11	-14525
了我的	-14526
倒臺	-14527
科幻	-14528
入曬	-14529
就等	-14530
巴爾	-14531
後嚟	-14532
罷食	-14533
好耐無	-14534
$1000	-14535
▁冰	-14536
受惠	-14537
就贏	-14538
橡膠	-14539
遺書	-14540
果個位	-14541
內閣	-14542
威威	-14543
拍照	-14544
死哂	-14545
高水	-14546
地盤佬	-14547
係以	-14548
偽黃	-14549
做好自己	-14550
操縱	-14551
默契	-14552
龍鳳	-14553
住在	-14554
唔慣	-14555
屌啦	-14556
天安門	-14557
我所知	-14558
大部份人	-14559
北歐	-14560
會所	-14561
▁推薦人優惠回贈	-14562
▁入到	-14563
▁地	-14564
仲講	-14565
都請	-14566
歲以上	-14567
為一	-14568
起嚟	-14569
嘅力量	-14570
開心啲	-14571
都唔緊要	-14572
原定	-14573
打敗	-14574
▁巴士	-14575
▁法官	-14576
1994	-14577
咁嘅情況	-14578
步驟	-14579
強姦犯	-14580
邊個會	-14581
▁我意思係	-14582
充電	-14583
救港	-14584
旅程	-14585
校內	-14586
同女朋友	-14587
何以	-14588
▁辛苦	-14589
吸引到	-14590
應該好	-14591
查看	-14592
求婚	-14593
法蘭	-14594
起源	-14595
遷就	-14596
宣稱	-14597
我發現	-14598
叫咗	-14599
就爆	-14600
翻去	-14601
▁畢竟	-14602
得好開心	-14603
兩檢	-14604
沉迷	-14605
老化	-14606
話齋	-14607
$50	-14608
▁港島	-14609
打和	-14610
最壞	-14611
水泡	-14612
簡化	-14613
那人	-14614
▁你見	-14615
係女人	-14616
▁其實如果	-14617
的好	-14618
身子	-14619
限期	-14620
黑衣人	-14621
-3	-14622
▁雪	-14623
臺妹	-14624
五分鐘	-14625
睇落去	-14626
都不會	-14627
不止	-14628
中風	-14629
唔埋	-14630
籌款	-14631
一樣會	-14632
代表隊	-14633
改過	-14634
浴室	-14635
不排除	-14636
可以唔	-14637
呢個就係	-14638
我喺	-14639
嚴重的	-14640
上演	-14641
一入	-14642
公約	-14643
利狗	-14644
是大	-14645
▁但要	-14646
又有人	-14647
唔會咁	-14648
失明	-14649
▁叫你	-14650
工作的	-14651
nd	-14652
事先	-14653
夾到	-14654
彈藥	-14655
月的	-14656
著緊	-14657
審視	-14658
覆我	-14659
開幕	-14660
近代史	-14661
▁希望佢	-14662
實戰	-14663
搞緊	-14664
殺害	-14665
▁天水圍	-14666
抱怨	-14667
掌心	-14668
棉花	-14669
相識	-14670
講係	-14671
吐露港	-14672
▁星期一	-14673
抗體	-14674
文物	-14675
論文	-14676
上面嘅	-14677
就好啦	-14678
自己老母	-14679
唔怪	-14680
產物	-14681
較低	-14682
那天	-14683
傢俬	-14684
狗咬	-14685
芝麻	-14686
▁理大	-14687
打唔到	-14688
叉電	-14689
品質	-14690
年薪	-14691
幻覺	-14692
散熱	-14693
通話	-14694
▁6)	-14695
比人捉	-14696
發音	-14697
▁係佢	-14698
都無事	-14699
是以	-14700
落下	-14701
關你撚事咩	-14702
影視	-14703
普攻	-14704
30000	-14705
都爆	-14706
人仕	-14707
=11	-14708
所羅門	-14709
個肚	-14710
手感	-14711
抖音	-14712
轉機	-14713
仲好過	-14714
佢就係	-14715
="11	-14716
友人	-14717
為此	-14718
都肯	-14719
陣時	-14720
自己揀	-14721
絕對唔係	-14722
又怕	-14723
叫停	-14724
接報	-14725
校友	-14726
就如	-14727
條橋	-14728
用了	-14729
番啲	-14730
最緊要係	-14731
流入	-14732
蒐集	-14733
連忙	-14734
▁連續	-14735
伊拉克	-14736
▁但依家	-14737
▁有時候	-14738
咁同	-14739
屆時	-14740
▁睇住	-14741
做功課	-14742
比機會	-14743
兵器	-14744
土共	-14745
太細	-14746
少個	-14747
暗戀	-14748
明顯係	-14749
兵力	-14750
底層	-14751
急急	-14752
無情	-14753
言行	-14754
都搵	-14755
不存在	-14756
去搞	-14757
大獎	-14758
你依家	-14759
可以搵	-14760
發生嘅事	-14761
/7/2019	-14762
保羅	-14763
殘體	-14764
開埋	-14765
就唔駛	-14766
扶持	-14767
浮現	-14768
筆直	-14769
又開始	-14770
吓大家	-14771
今個星期	-14772
教書	-14773
我們要	-14774
和尚	-14775
清單	-14776
在她	-14777
天皇	-14778
她是	-14779
走火	-14780
想唔想	-14781
去睇醫生	-14782
四處	-14783
好強	-14784
幹部	-14785
咗幾日	-14786
偶爾	-14787
心得	-14788
真嘅	-14789
好合理	-14790
打官司	-14791
堆人	-14792
270	-14793
咩都無	-14794
評分功能	-14795
海峽	-14796
256	-14797
都係做	-14798
▁補	-14799
接力	-14800
▁公屋	-14801
你都會	-14802
偷襲	-14803
殘廢	-14804
▁強	-14805
唔嚟	-14806
憎恨	-14807
▁做得	-14808
中共的	-14809
失去咗	-14810
共諜	-14811
已在	-14812
忍住	-14813
手槍	-14814
我決定	-14815
讀緊書	-14816
絕對唔會	-14817
串謀	-14818
制衡	-14819
好廢	-14820
攞返	-14821
警察宿舍	-14822
冷感	-14823
提問	-14824
先知原來	-14825
有乜問題	-14826
▁柒	-14827
病情	-14828
見狀	-14829
的笑容	-14830
第一位	-14831
▁揸	-14832
企位	-14833
彈出	-14834
野嚟	-14835
因為他	-14836
好撚柒	-14837
無條件	-14838
],	-14839
執導	-14840
多麼	-14841
滙豐	-14842
回覆評分功能	-14843
嘅決定	-14844
香港電影	-14845
▁其實真係	-14846
一倍	-14847
大海	-14848
-->	-14849
搜尋	-14850
泡沫	-14851
老年	-14852
▁咩叫	-14853
個單位	-14854
波臺狗	-14855
差點	-14856
槍械	-14857
正價	-14858
正股	-14859
無疑	-14860
知啦	-14861
已經是	-14862
食早餐	-14863
▁林鄭月娥	-14864
不像	-14865
差在	-14866
▁成功	-14867
兩隻字	-14868
提出的	-14869
一齊住	-14870
街都係	-14871
980	-14872
用英文	-14873
ap	-14874
張國	-14875
突登	-14876
糖水	-14877
都要睇	-14878
等埋	-14879
!!」	-14880
瑪利亞	-14881
講粗口	-14882
br	-14883
就巖	-14884
心地	-14885
眉頭	-14886
高薪	-14887
專訪	-14888
下來的	-14889
兩三年	-14890
會不會	-14891
個官	-14892
占卜	-14893
十年後	-14894
啦柒頭	-14895
從來沒有	-14896
8%	-14897
方針	-14898
畢業生	-14899
▁魔	-14900
光輝	-14901
學名	-14902
▁做人	-14903
第一隻	-14904
▁所以你	-14905
外部	-14906
的想法	-14907
並將	-14908
推斷	-14909
乞兒	-14910
▁會員	-14911
是常識	-14912
▁徐	-14913
再無	-14914
都非常	-14915
▁我朋友	-14916
7.1	-14917
唔知邊個	-14918
留係香港	-14919
咁重	-14920
聽落	-14921
開得	-14922
同溫層	-14923
▁佢應該	-14924
音響	-14925
別人的	-14926
大家樂	-14927
首先要	-14928
抵玩	-14929
結尾	-14930
菊花	-14931
萬歲	-14932
可以幫	-14933
如果唔	-14934
有足夠	-14935
五大訴求缺一不可	-14936
漢奸	-14937
連環	-14938
成為香港	-14939
嘅其中一個	-14940
但亦	-14941
▁鍾	-14942
睇哂	-14943
食屎狗	-14944
同男朋友	-14945
刀手	-14946
社羣	-14947
不公平	-14948
可恥	-14949
率先	-14950
達斯	-14951
就有人	-14952
生之年	-14953
笑說	-14954
▁5)	-14955
就自然	-14956
不算	-14957
分明	-14958
跟手	-14959
▁千祈唔好	-14960
綠卡	-14961
流水式	-14962
都唔知有冇	-14963
旁聽	-14964
▁唔好咁	-14965
但當	-14966
金正	-14967
(?)	-14968
嘅資料	-14969
司令	-14970
撞車	-14971
晚飯	-14972
所以咪	-14973
至少有	-14974
不問	-14975
人呀	-14976
就轉	-14977
工開	-14978
檢察	-14979
科研	-14980
警覺	-14981
▁深水埗	-14982
好似唔係	-14983
完全沒有	-14984
使命	-14985
偷野	-14986
陣線	-14987
就俾人	-14988
性能	-14989
呃自己	-14990
‧‧‧‧‧‧	-14991
▁順	-14992
小的	-14993
獲取	-14994
通緝	-14995
抽獎	-14996
時無	-14997
煩膠	-14998
要換	-14999
只會令	-15000
一啖	-15001
又死	-15002
幾遠	-15003
欣宜	-15004
足足	-15005
▁如果無	-15006
▁我唔會	-15007
上頭	-15008
房門	-15009
菲林	-15010
開過	-15011
▁嗱	-15012
仔仔	-15013
一無	-15014
大曬	-15015
賣家	-15016
2001	-15017
功勞	-15018
火影	-15019
聯手	-15020
風雨	-15021
▁攬炒	-15022
信唔過	-15023
咁又點	-15024
競爭力	-15025
奕迅	-15026
返少少	-15027
經濟發展	-15028
▁包	-15029
分行	-15030
好長	-15031
告知	-15032
未婚	-15033
爆頭	-15034
季初	-15035
軍營	-15036
隻豬	-15037
ng	-15038
見得	-15039
呢個字	-15040
係中	-15041
入錢	-15042
大地	-15043
封印	-15044
還能	-15045
離世	-15046
的存在	-15047
冇一個	-15048
七一	-15049
十日	-15050
最驚	-15051
氣溫	-15052
我想講	-15053
係高	-15054
時有	-15055
未啊	-15056
稍後	-15057
若然	-15058
薯片	-15059
詛咒	-15060
差人	-15061
萬分	-15062
行出	-15063
7.5	-15064
的歷史	-15065
▁其實都係	-15066
堂食	-15067
我識	-15068
如果想	-15069
所以就	-15070
上得	-15071
年史	-15072
胸部	-15073
路邊	-15074
好似得	-15075
▁2015	-15076
▁&	-15077
我要見律師	-15078
入埋	-15079
急速	-15080
所見	-15081
打哂	-15082
步兵	-15083
著衫	-15084
規律	-15085
而家仲	-15086
▁如果可以	-15087
問咗	-15088
失禮	-15089
小明	-15090
淋病	-15091
狗嘅	-15092
百科	-15093
仆街啦	-15094
▁告	-15095
大法	-15096
笑撚死	-15097
紀錄片	-15098
▁好想知	-15099
的角色	-15100
▁Saint	-15101
化身	-15102
西部	-15103
佢本身	-15104
殘體字	-15105
智英	-15106
真愛	-15107
衰野	-15108
▁其次	-15109
了很多	-15110
諗起佢	-15111
▁大陸人	-15112
▁哥	-15113
大蛇	-15114
頂唔	-15115
30-	-15116
▁用咗	-15117
香港人權與	-15118
具備	-15119
幾月	-15120
新高	-15121
漆黑	-15122
一國一制	-15123
反攻	-15124
東歐	-15125
結界	-15126
▁入嚟	-15127
▁有幾	-15128
先會咁	-15129
十二月	-15130
唔批	-15131
郊野	-15132
每日都	-15133
▁間	-15134
二月	-15135
出招	-15136
四日	-15137
▁陸	-15138
種人	-15139
較高	-15140
食人血饅頭	-15141
分解	-15142
未計	-15143
集資	-15144
有一天	-15145
▁加拿大	-15146
比其他人	-15147
願榮光歸香港	-15148
新歌	-15149
現況	-15150
講出	-15151
被警方	-15152
都見唔到	-15153
兒女	-15154
▁全港	-15155
▁唔似	-15156
中共嘅	-15157
嘅程度	-15158
搭的士	-15159
繁忙時間	-15160
▁某	-15161
五日	-15162
位入	-15163
初中	-15164
後勤	-15165
一旁	-15166
落佢	-15167
千幾蚊	-15168
終於可以	-15169
▁窮	-15170
曬氣	-15171
有咁	-15172
洗費	-15173
(15	-15174
365	-15175
問題嘅	-15176
孤單	-15177
得把口	-15178
和波	-15179
帶咗	-15180
擊中	-15181
現行	-15182
聽見	-15183
一貫	-15184
守法	-15185
降落	-15186
個新	-15187
家居	-15188
損壞	-15189
▁睇佢	-15190
交合	-15191
協力	-15192
筷子	-15193
舞蹈	-15194
梗係要	-15195
好舒服	-15196
自己救	-15197
扮睇唔到	-15198
真係好想	-15199
大手	-15200
控股	-15201
▁認	-15202
嗰樣	-15203
應有	-15204
▁比起	-15205
▁自由	-15206
愛自己	-15207
學過	-15208
果類	-15209
缺陷	-15210
事務處	-15211
都幾撚	-15212
守到	-15213
去都係	-15214
藝術家	-15215
交到	-15216
向外	-15217
專利	-15218
有睇	-15219
開機	-15220
運輸署	-15221
▁屈	-15222
人渣	-15223
期限	-15224
你咁樣	-15225
嘅意見	-15226
當時嘅	-15227
一角	-15228
東江	-15229
飲管	-15230
黑仔	-15231
▁最終	-15232
有啲野	-15233
的方向	-15234
一直以來	-15235
吓屆	-15236
支票	-15237
重播	-15238
▁經	-15239
利斯	-15240
四眼	-15241
女皇	-15242
往來	-15243
發現咗	-15244
▁早幾日	-15245
啲水	-15246
困境	-15247
打啦	-15248
成年人	-15249
磨合	-15250
自選	-15251
(0	-15252
僅僅	-15253
助手	-15254
我點	-15255
戶外	-15256
仲係咁	-15257
應該得	-15258
文青	-15259
閪波	-15260
▁吊	-15261
與他	-15262
貨物	-15263
當然係	-15264
的名字	-15265
天天	-15266
轟炸	-15267
迷你	-15268
不合作	-15269
合資格	-15270
▁費	-15271
收起	-15272
始終都係	-15273
我隻	-15274
連勝	-15275
分成	-15276
面嘅	-15277
房地產	-15278
▁預	-15279
識做	-15280
65"	-15281
點算好	-15282
多久	-15283
文員	-15284
極其	-15285
死撚	-15286
講啲	-15287
嘅意義	-15288
前所	-15289
幾粒	-15290
猁狗	-15291
緊密	-15292
行完	-15293
▁講咗	-15294
性騷擾	-15295
火魔法	-15296
的風險	-15297
火花	-15298
飛揚	-15299
務求	-15300
注重	-15301
血流	-15302
釋法	-15303
你都唔會	-15304
送中條例	-15305
錯曬	-15306
鍾意嘅	-15307
▁按	-15308
你比	-15309
語文	-15310
▁如果想	-15311
一擊	-15312
收曬	-15313
渡過	-15314
破解	-15315
就有得	-15316
講廣東話	-15317
公營	-15318
豪華	-15319
領取	-15320
呢一點	-15321
嚟計	-15322
佢個仔	-15323
教科書	-15324
都起碼	-15325
打咩	-15326
輸緊	-15327
雷達	-15328
我地會	-15329
的同時	-15330
種族歧視	-15331
對出	-15332
煽惑	-15333
金球	-15334
佢地都	-15335
當你係	-15336
剎那	-15337
忍心	-15338
痛到	-15339
(26	-15340
可能我	-15341
的暴力	-15342
可能已經	-15343
美國制裁	-15344
主隊	-15345
傷殘	-15346
啫係	-15347
拜託	-15348
斯克	-15349
▁況且	-15350
▁難道	-15351
但香港	-15352
好恐怖	-15353
佢入	-15354
名額	-15355
整死	-15356
旁觀	-15357
辯護	-15358
長毛	-15359
吓了	-15360
用語	-15361
疤狗	-15362
不過要	-15363
走唔甩	-15364
宵夜	-15365
瀨屎	-15366
誕生	-15367
▁內地	-15368
奴才	-15369
一個大	-15370
一試	-15371
不被	-15372
住邊	-15373
係啊	-15374
好柒	-15375
影衰	-15376
海上	-15377
糾紛	-15378
就有機會	-15379
檢驗	-15380
武術	-15381
地底泥	-15382
編年史	-15383
唔會有人	-15384
港版國安法	-15385
唐樓	-15386
射中	-15387
首領	-15388
▁藍屍	-15389
你班友	-15390
終於有	-15391
▁Y	-15392
▁吹	-15393
到黑	-15394
忍受	-15395
洗底	-15396
依家嘅	-15397
都未試過	-15398
標語	-15399
長文	-15400
美國嘅	-15401
事項	-15402
插手	-15403
活力	-15404
陰道	-15405
嘅權利	-15406
少好多	-15407
比卡超	-15408
超能力	-15409
改革開放	-15410
發現原來	-15411
嘴角	-15412
醫師	-15413
又出	-15414
呀伯	-15415
手上的	-15416
真係勁	-15417
嘅一部分	-15418
薩克	-15419
4.5	-15420
▁推到	-15421
一車車	-15422
電話號碼	-15423
列為	-15424
叱吒	-15425
激光	-15426
高咗	-15427
先見到	-15428
方法去	-15429
▁國安法	-15430
▁數	-15431
真假	-15432
頭暈	-15433
嘅人會	-15434
係咪即係	-15435
哪怕	-15436
嘅內容	-15437
接觸到	-15438
更多的	-15439
▁香港政府	-15440
]。	-15441
▁江	-15442
估吓	-15443
屯公	-15444
二年	-15445
人和	-15446
雖則	-15447
敢唔敢	-15448
這一點	-15449
五大	-15450
容納	-15451
規例	-15452
▁做到	-15453
我明白	-15454
中美貿易協議	-15455
▁●	-15456
樣嘅	-15457
邪教	-15458
大快活	-15459
一小	-15460
塞住	-15461
就明	-15462
唱到	-15463
昆蟲	-15464
神神	-15465
此之外	-15466
董建華	-15467
取暖	-15468
的野	-15469
退後	-15470
中小學	-15471
兩回事	-15472
副身家	-15473
掉落	-15474
掩蓋	-15475
用法	-15476
短褲	-15477
教育界	-15478
未去到	-15479
而家啲	-15480
協定	-15481
夠啦	-15482
人入	-15483
外觀	-15484
愛人	-15485
枕頭	-15486
違背	-15487
錯了	-15488
俾你地	-15489
自己同	-15490
又用	-15491
你呢個	-15492
望望	-15493
狗隊	-15494
理財	-15495
等陣	-15496
護理	-15497
▁順便	-15498
條垃圾	-15499
自己想	-15500
行唔到	-15501
▁純	-15502
下嘅	-15503
內有	-15504
喺個	-15505
果球	-15506
自認	-15507
韓仔	-15508
救唔到	-15509
本案	-15510
鄰近	-15511
但可以	-15512
而家咁	-15513
大家支持	-15514
會跌	-15515
百佳	-15516
你們的	-15517
係幾多	-15518
夠膽死	-15519
已經比	-15520
亂嚟	-15521
提子	-15522
食撚	-15523
▁咁快	-15524
雖然係	-15525
就愈	-15526
服裝	-15527
通通	-15528
our	-15529
▁中文	-15530
勇武派	-15531
壓住	-15532
楊過	-15533
年之後	-15534
中興	-15535
做番	-15536
器材	-15537
在地	-15538
輸出革命	-15539
之道	-15540
敵方	-15541
隨身	-15542
集思	-15543
▁兩邊	-15544
警方在	-15545
都唔講	-15546
所作	-15547
晚會	-15548
▁好奇	-15549
亦要	-15550
據點	-15551
走嘅	-15552
一首	-15553
分得	-15554
到無	-15555
將他	-15556
笠水	-15557
▁近年	-15558
喺呢個	-15559
就話姐	-15560
▁唔需要	-15561
劉備	-15562
帽子	-15563
必中	-15564
返人	-15565
幾十個	-15566
呃到	-15567
虧損	-15568
賣曬	-15569
都未見過	-15570
時半	-15571
你認為	-15572
唔關我	-15573
同一個人	-15574
沿途	-15575
立體	-15576
米線	-15577
見有	-15578
一定會有	-15579
唯一一個	-15580
呀哥	-15581
寶貴	-15582
必殺	-15583
菁英	-15584
隊隊	-15585
你不如	-15586
晴天	-15587
服侍	-15588
對社會	-15589
會見到	-15590
▁仲未計	-15591
上埋	-15592
課咗	-15593
多一次	-15594
大不了	-15595
似是	-15596
內在	-15597
彌補	-15598
有分別	-15599
解釋到	-15600
▁大部份	-15601
避孕	-15602
長途	-15603
大半年	-15604
就唔得	-15605
所以無	-15606
全速	-15607
和我	-15608
衝去	-15609
雷射	-15610
▁一名	-15611
了不少	-15612
班手足	-15613
打架	-15614
停一停	-15615
強大的	-15616
都聽到	-15617
今次真係	-15618
▁朗	-15619
梳化	-15620
相認	-15621
福音	-15622
興起	-15623
若無	-15624
過數	-15625
十八區	-15626
包庇	-15627
天災	-15628
幫緊	-15629
廿蚊	-15630
有好大	-15631
當權者	-15632
渾身	-15633
les	-15634
▁等我	-15635
口中嘅	-15636
水手	-15637
開聲	-15638
露營	-15639
▁出街	-15640
都好想	-15641
同自己講	-15642
巴勒斯坦	-15643
$5	-15644
依隻	-15645
投擲	-15646
附屬	-15647
不過你	-15648
▁但佢地	-15649
又唔可以	-15650
放唔低	-15651
有意義	-15652
個球	-15653
天津	-15654
罕見	-15655
支聯會	-15656
變成了	-15657
民主運動	-15658
仲大	-15659
病徵	-15660
其實是	-15661
問題的	-15662
▁將軍澳	-15663
▁施	-15664
名氣	-15665
出到去	-15666
▁女朋友	-15667
卻被	-15668
條褲	-15669
百貨	-15670
1/3	-15671
們的	-15672
多種	-15673
攻打	-15674
告訴我	-15675
次次都係	-15676
出現咗	-15677
=9	-15678
保密	-15679
問候	-15680
▁下場	-15681
唔好玩	-15682
好撚煩	-15683
發展到	-15684
▁第一個	-15685
無論如何	-15686
有不	-15687
認受	-15688
赤裸	-15689
四方	-15690
常委	-15691
人地有	-15692
寫字樓	-15693
管理處	-15694
▁都係果句	-15695
┃┃	-15696
低端	-15697
剩餘	-15698
打斷	-15699
翻查	-15700
話咗	-15701
ard	-15702
伊斯蘭教	-15703
香港社會	-15704
罪案	-15705
先天	-15706
神枱	-15707
快撚啲	-15708
你我	-15709
佢咩	-15710
戰績	-15711
▁九龍	-15712
自己搵	-15713
普通市民	-15714
廢咗	-15715
沙律	-15716
當月	-15717
顛覆國家	-15718
▁2000	-15719
城門	-15720
得分	-15721
規管	-15722
大氣	-15723
應援	-15724
既定	-15725
淡化	-15726
一堆人	-15727
呢篇	-15728
差館	-15729
旗幟	-15730
蔓延	-15731
保皇狗	-15732
睇吓有無	-15733
▁貓	-15734
住嘅	-15735
有望	-15736
終審	-15737
唔識分	-15738
▁愈	-15739
李慧	-15740
要諗	-15741
係咩人	-15742
兩樣野	-15743
就咁睇	-15744
我們在	-15745
呀我	-15746
但之後	-15747
淨係睇	-15748
萬左右	-15749
▁簽	-15750
今個	-15751
衫褲	-15752
這項	-15753
邊到有	-15754
不過都係	-15755
▁響	-15756
停低	-15757
咁正	-15758
族人	-15759
查到	-15760
誘惑	-15761
迫到	-15762
離隊	-15763
找不到	-15764
行過去	-15765
!)	-15766
一嘢	-15767
嫌疑	-15768
戰國	-15769
負債	-15770
段關係	-15771
買唔起	-15772
都唔少	-15773
聯賽冠軍	-15774
▁皇	-15775
下下	-15776
侷限	-15777
長龍	-15778
掉了	-15779
犯人	-15780
若驊	-15781
有條友	-15782
踢得好	-15783
以為自己好	-15784
同理心	-15785
▁吓半場	-15786
▁雖然我	-15787
去講	-15788
比數	-15789
同條女	-15790
告得入	-15791
唔夠打	-15792
於香港	-15793
他不	-15794
實名	-15795
色彩	-15796
高壓	-15797
衍生	-15798
怪怪地	-15799
帖文	-15800
得濟	-15801
死忠	-15802
那位	-15803
12.	-15804
兩個都	-15805
▁到最後	-15806
濫暴	-15807
此同時	-15808
爭取到	-15809
▁其實個	-15810
▁好簡單	-15811
生前	-15812
臭味	-15813
孫中山	-15814
成個鐘	-15815
花時間	-15816
ai	-15817
」)	-15818
實地	-15819
指指	-15820
雞姦	-15821
韭菜	-15822
交易所	-15823
美國國會	-15824
二讀	-15825
孝順	-15826
每次都	-15827
點解仲要	-15828
潮文	-15829
紅線	-15830
著咗	-15831
出波	-15832
搞咩	-15833
父子	-15834
臺上	-15835
▁口	-15836
驕傲	-15837
太古城	-15838
以致	-15839
分泌	-15840
屌曬	-15841
拉你	-15842
9.29	-15843
國外	-15844
情景	-15845
嘅新聞	-15846
望住佢	-15847
番轉頭	-15848
都唔止	-15849
▁1000	-15850
反口	-15851
咗入	-15852
街頭抗爭	-15853
睇咩	-15854
▁都有	-15855
時間啦	-15856
仲勁	-15857
快餐	-15858
拍吓	-15859
改成	-15860
牛油	-15861
出嚟話	-15862
老豆豆	-15863
覺得自己係	-15864
八號	-15865
可於	-15866
抗衡	-15867
方位	-15868
臉色	-15869
香水	-15870
▁一時	-15871
▁話唔定	-15872
判處	-15873
唔耐	-15874
墮落	-15875
笑聲	-15876
米高	-15877
追溯	-15878
人踩人	-15879
唔撚好	-15880
唔賣	-15881
安穩	-15882
總數	-15883
賭仔	-15884
長達	-15885
嘅同時	-15886
▁我覺得係	-15887
290	-15888
向警方	-15889
▁民	-15890
力同	-15891
算了	-15892
好多手足	-15893
團火	-15894
沖完	-15895
佢覺得	-15896
1700	-15897
▁=	-15898
塔利	-15899
大熱	-15900
炒飯	-15901
開飯	-15902
▁未必	-15903
社會上	-15904
食唔到	-15905
2024	-15906
哥倫比亞	-15907
主帥	-15908
作文	-15909
相遇	-15910
="9	-15911
▁似係	-15912
打造	-15913
招聘	-15914
魷魚	-15915
仆街仔	-15916
咁嘅野	-15917
▁要記住	-15918
加州	-15919
得了	-15920
蝕底	-15921
5,6	-15922
古典	-15923
咁的	-15924
好平	-15925
推理	-15926
苦主	-15927
616	-15928
▁搵到	-15929
萬美元	-15930
都未到	-15931
▁譚	-15932
可謂	-15933
嚟咗	-15934
定價	-15935
就正	-15936
撤離	-15937
擴展	-15938
破咗	-15939
面向	-15940
唔係講	-15941
防暴警	-15942
維多利亞	-15943
八卦	-15944
後臺	-15945
排放	-15946
個司機	-15947
現實世界	-15948
忘了	-15949
較多	-15950
集集	-15951
選舉制度	-15952
▁接	-15953
公式	-15954
稱號	-15955
可以玩	-15956
唔得嘅	-15957
有一些	-15958
咁多時間	-15959
▁報	-15960
描寫	-15961
文職	-15962
會是	-15963
花姐	-15964
起好	-15965
遮住	-15966
▁選	-15967
另類	-15968
在那	-15969
幾分	-15970
捷克	-15971
續集	-15972
你問我	-15973
▁仲記得	-15974
起初	-15975
▁比較	-15976
來香港	-15977
油尖旺	-15978
這不是	-15979
如果可以	-15980
本土文化	-15981
契約	-15982
拉攏	-15983
拎走	-15984
就不了	-15985
都贏唔到	-15986
反制	-15987
戴住	-15988
爭論	-15989
▁二嚟	-15990
▁冇得	-15991
不應該	-15992
▁佢好似	-15993
恐怖襲擊	-15994
漢人	-15995
呢部	-15996
完佢	-15997
工場	-15998
政府會	-15999
介乎	-16000
追數	-16001
黃子華	-16002
▁把	-16003
深信	-16004
冇任何	-16005
(1	-16006
▁跑	-16007
廣益	-16008
掉轉	-16009
極少	-16010
防衛	-16011
使用者	-16012
是為	-16013
睇怕	-16014
薪金	-16015
賤聯	-16016
不容易	-16017
▁所以要	-16018
嘅愛	-16019
果斷	-16020
珠海	-16021
調節	-16022
邊界	-16023
我地可以	-16024
十七	-16025
射入	-16026
直指	-16027
重用	-16028
點撚	-16029
▁特朗普	-16030
都睇唔到	-16031
只剩	-16032
▁學校	-16033
我唔信	-16034
對峙	-16035
嶺南	-16036
從中	-16037
果刻	-16038
法團	-16039
超出	-16040
一系列	-16041
不知不覺	-16042
共存	-16043
嗌交	-16044
坐車	-16045
延期	-16046
覆你	-16047
大自然	-16048
好好食	-16049
廿幾年	-16050
佢囉	-16051
死我	-16052
病咗	-16053
醒來	-16054
的理由	-16055
知道佢	-16056
暗地	-16057
奶野	-16058
死都唔	-16059
無一個	-16060
▁西班牙	-16061
全國人大	-16062
照樣	-16063
▁唔怪	-16064
不合理	-16065
兄弟姊妹	-16066
都好重要	-16067
取決	-16068
跟返	-16069
▁湯	-16070
不值	-16071
原廠	-16072
換衫	-16073
="4	-16074
大陸狗	-16075
調查後	-16076
真係好大	-16077
▁其實而家	-16078
呃咗	-16079
孟晚	-16080
盧卡	-16081
藍田	-16082
唔係真係	-16083
依到	-16084
夢境	-16085
得曬	-16086
暗中	-16087
英領	-16088
▁咁講	-16089
附近的	-16090
尋常	-16091
已獲	-16092
洗完	-16093
浙江	-16094
產權	-16095
後路	-16096
經經	-16097
並以	-16098
熱帶氣旋	-16099
確診個案	-16100
覺得佢地	-16101
所欲	-16102
爆曬	-16103
錯字	-16104
750	-16105
最低工資	-16106
口吻	-16107
𡃁仔	-16108
▁佢係咪	-16109
土生土	-16110
去開	-16111
效忠	-16112
留住	-16113
不會有	-16114
▁理	-16115
爭在	-16116
現正	-16117
越嚟越多	-16118
你聽	-16119
依據	-16120
手工	-16121
打你	-16122
旅館	-16123
波入	-16124
一入嚟	-16125
支持我	-16126
異能	-16127
仲差	-16128
熊軍	-16129
在臺灣	-16130
可以去到	-16131
▁佐	-16132
傍晚	-16133
樂隊	-16134
相愛	-16135
重光	-16136
▁其實佢地	-16137
▁彭	-16138
歌唱	-16139
極力子	-16140
小眾	-16141
撒旦	-16142
買車	-16143
身位	-16144
這類	-16145
不必要	-16146
▁仲要係	-16147
op	-16148
拿到	-16149
美化	-16150
聲線	-16151
及香港	-16152
唔好諗	-16153
大爆發	-16154
傷痕	-16155
各項	-16156
會的	-16157
無故	-16158
魔術	-16159
佢個名	-16160
冇興趣	-16161
其他方法	-16162
資料圖片	-16163
▁唔好以為	-16164
▁烏	-16165
儲存	-16166
應變	-16167
維繫	-16168
緊個	-16169
美孚	-16170
不同意	-16171
日撚日	-16172
藝人同埋	-16173
正好	-16174
嘅效果	-16175
祕書處	-16176
▁理論上	-16177
氧氣	-16178
其他巴打	-16179
三代	-16180
直入	-16181
開季	-16182
一日未	-16183
件垃圾	-16184
變咗做	-16185
看更	-16186
腰斬	-16187
葉問	-16188
酷刑	-16189
佢會唔會	-16190
巨星	-16191
你就知	-16192
唔洗講	-16193
睇得明	-16194
團結一致	-16195
大部分都係	-16196
特蘭	-16197
點後	-16198
▁小朋友	-16199
人種	-16200
你諗	-16201
停電	-16202
前夕	-16203
莫名	-16204
趕到	-16205
▁讀書	-16206
唔洗驚	-16207
條立法	-16208
⋯」	-16209
一如	-16210
射咗	-16211
咆哮	-16212
燃料	-16213
當做	-16214
般尼	-16215
表妹	-16216
賤格	-16217
孟晚舟	-16218
卡數	-16219
同水	-16220
彌生	-16221
根源	-16222
廣大	-16223
男一	-16224
開眼	-16225
可以食	-16226
呢啲係	-16227
▁我老豆	-16228
樣貌	-16229
用曬	-16230
一時間	-16231
大城市	-16232
搞分化	-16233
往前	-16234
核電	-16235
畫風	-16236
深淵	-16237
部落	-16238
其他隊	-16239
集思廣益	-16240
▁集合地點	-16241
含淚	-16242
藝員	-16243
比人知	-16244
的目的	-16245
iu	-16246
▁斷	-16247
北極	-16248
畫家	-16249
▁侵侵	-16250
▁銀行	-16251
圖案	-16252
耐啲	-16253
虛構	-16254
見解	-16255
都好多人	-16256
住屋	-16257
動用	-16258
提款	-16259
正統	-16260
測量	-16261
無形	-16262
▁俾你	-16263
唔講得	-16264
係因為佢	-16265
個圈	-16266
同化	-16267
行開	-16268
愉園	-16269
特點	-16270
生化	-16271
硬係	-16272
有咩意思	-16273
▁要求香港	-16274
上級	-16275
並於	-16276
第個	-16277
頭嘅	-16278
嚟比	-16279
度過	-16280
共通	-16281
又一個	-16282
嘅目標	-16283
奧地利	-16284
福建幫	-16285
蘇格蘭	-16286
230	-16287
打得好	-16288
按年	-16289
毒瘤	-16290
贏緊	-16291
辣椒	-16292
▁達哥	-16293
三個字	-16294
嘅畫面	-16295
一盒	-16296
同狗	-16297
打鳩	-16298
既有	-16299
還會	-16300
百幾萬	-16301
928	-16302
位置喺奧	-16303
就再	-16304
波斯	-16305
嘅作用	-16306
的說話	-16307
▁主要係	-16308
轉數	-16309
黑暴	-16310
,30	-16311
如果你係	-16312
(1)	-16313
你條女	-16314
與其他	-16315
仲有機會	-16316
催眠	-16317
兔仔	-16318
分擔	-16319
圓形	-16320
控訴	-16321
會場	-16322
有必要	-16323
講兩句	-16324
搵埋	-16325
有槍	-16326
▁定係你	-16327
拆咗	-16328
流暢	-16329
逃跑	-16330
自己買	-16331
2025	-16332
環球時報	-16333
▁▲	-16334
搬出去	-16335
▁佢而家	-16336
威廉	-16337
▁你就	-16338
▁我對	-16339
正正經經	-16340
家園	-16341
積電	-16342
踢咗	-16343
佢咪	-16344
同場	-16345
望遠	-16346
雷拉	-16347
▁只見	-16348
tr	-16349
但好	-16350
友好	-16351
快快	-16352
收音	-16353
猜測	-16354
鳩氣	-16355
係一樣	-16356
就好易	-16357
第二階段中美貿易協議	-16358
國嘅	-16359
格局	-16360
異見	-16361
自律	-16362
農村	-16363
又幾	-16364
徒刑	-16365
日就	-16366
深處	-16367
空難	-16368
這份	-16369
一兩次	-16370
唔一定係	-16371
:2018	-16372
一至	-16373
月台	-16374
唔好理	-16375
禁蒙面法	-16376
變動	-16377
點票	-16378
唔撚知	-16379
怕醜	-16380
老麥	-16381
踢過	-16382
喺美國	-16383
不負責任	-16384
係日本嘅一個	-16385
宣告	-16386
之前係	-16387
係咁樣	-16388
隻手指	-16389
▁仲諗住	-16390
:4	-16391
利雲	-16392
喪失	-16393
落成	-16394
賤畜	-16395
踏出	-16396
過幾日	-16397
1.1	-16398
串柒柒	-16399
人地方	-16400
九個	-16401
唔戴	-16402
幾年後	-16403
條款及細則	-16404
之意	-16405
咁靚	-16406
咩嚟	-16407
嘅抗爭	-16408
埋自己	-16409
對準政權	-16410
做起	-16411
年期	-16412
獻世	-16413
貪錢	-16414
當地人	-16415
▁條撚樣	-16416
唔停	-16417
地的	-16418
建基於	-16419
我也不	-16420
我諗起	-16421
無論係	-16422
亞協	-16423
前列	-16424
香港冇	-16425
▁屌那星	-16426
國人	-16427
正言	-16428
激情	-16429
與人	-16430
據瞭解	-16431
真雙普選作為	-16432
▁裝修	-16433
不喜歡	-16434
二百萬人	-16435
第二階段中美貿易協議一部份	-16436
逗留	-16437
138	-16438
一係你	-16439
百幾蚊	-16440
▁要求香港真雙普選作為	-16441
一動	-16442
意料	-16443
精選	-16444
▁我驚	-16445
一直有	-16446
了一些	-16447
南亞人	-16448
其實只係	-16449
一巴	-16450
工商	-16451
想再	-16452
李卓	-16453
生素	-16454
當然要	-16455
七成	-16456
放返	-16457
榜首	-16458
湖人	-16459
爆煲	-16460
股災	-16461
進了	-16462
每一位	-16463
只為	-16464
▁生活	-16465
列明	-16466
宣戰	-16467
戴上	-16468
汶澤	-16469
笨柒	-16470
萬事	-16471
都可	-16472
▁無得	-16473
真係慘	-16474
緊自己	-16475
中華民族	-16476
人腳	-16477
你搵	-16478
個朵	-16479
兩步	-16480
城堡	-16481
我心	-16482
歐冠	-16483
被拉	-16484
間的	-16485
黃昏	-16486
參戰	-16487
合乎	-16488
登報	-16489
點心	-16490
▁主角	-16491
▁我識	-16492
大球場	-16493
奪得	-16494
簡迪	-16495
錯人	-16496
呢一個	-16497
部手機	-16498
▁僕你個街	-16499
成事	-16500
賽程	-16501
金像	-16502
▁請大家	-16503
原作	-16504
外貌	-16505
曲解	-16506
▁唔係好	-16507
口語	-16508
都拉	-16509
唔係太	-16510
▁其	-16511
個站	-16512
加分	-16513
行嘅	-16514
殺傷力	-16515
香港會	-16516
轉戰	-16517
公司嘅	-16518
喺中國	-16519
塞爾	-16520
夠錢	-16521
但起碼	-16522
出唔出	-16523
老一輩	-16524
指著	-16525
要坐	-16526
難啲	-16527
▁打機	-16528
小行星	-16529
高科技	-16530
不復	-16531
都差	-16532
▁睇嚇	-16533
號開始	-16534
▁先唔講	-16535
▁#	-16536
入籍	-16537
後遺	-16538
魔警	-16539
▁到咗	-16540
▁機	-16541
到癲	-16542
輻射	-16543
但由於	-16544
點解你	-16545
唔係自己	-16546
冰室	-16547
客串	-16548
病假	-16549
週六	-16550
行政總裁	-16551
一鋪	-16552
幹事	-16553
所得	-16554
最前	-16555
▁中場	-16556
放出嚟	-16557
姨姨	-16558
唔好放棄	-16559
▁個人認為	-16560
一字	-16561
太監	-16562
定先	-16563
怕死	-16564
捉你	-16565
搬走	-16566
操練	-16567
有哂	-16568
稅局	-16569
變形	-16570
▁中環	-16571
▁黨鐵	-16572
有關係	-16573
▁咁又係	-16574
最大問題係	-16575
▁通	-16576
嗰段	-16577
清高	-16578
維斯	-16579
處分	-16580
▁一隻	-16581
企定定	-16582
佢都有	-16583
下集	-16584
反射	-16585
哩啲	-16586
換過	-16587
今次係	-16588
入咗去	-16589
原居民	-16590
有咩咁	-16591
先係重點	-16592
歐聯決賽	-16593
算係咁啦	-16594
傾到	-16595
棄咗	-16596
積士	-16597
班藍絲	-16598
嘅人都係	-16599
都過唔到	-16600
三成	-16601
不絕	-16602
盡情	-16603
▁你咁樣	-16604
盡可能	-16605
有冇得諗	-16606
之得	-16607
森美	-16608
而論	-16609
量子	-16610
類固醇	-16611
必泰	-16612
潛艇	-16613
飛咗	-16614
▁係你	-16615
之後我	-16616
然後就	-16617
都好快	-16618
▁遲	-16619
不穩	-16620
向來	-16621
想喊	-16622
爭奪	-16623
當人	-16624
係一件	-16625
擺到明	-16626
▁由細到大	-16627
▁721811	-16628
專欄	-16629
採購	-16630
賣緊	-16631
▁強烈	-16632
▁故事	-16633
▁邊度	-16634
係咩意思	-16635
交叉	-16636
住係	-16637
執柒	-16638
部曲	-16639
吓一次	-16640
次元	-16641
冇再	-16642
帶我	-16643
戒備	-16644
索取	-16645
逼佢	-16646
先有人	-16647
有錢收	-16648
睇住佢	-16649
疫苗接種	-16650
粒粒	-16651
▁大家要	-16652
睇唔過眼	-16653
再嚟	-16654
分工	-16655
講嚇	-16656
又被	-16657
評判	-16658
食肉	-16659
高空	-16660
投咗	-16661
會然	-16662
網軍	-16663
1.2	-16664
頭到尾	-16665
貶值	-16666
始終係	-16667
的環境	-16668
中六	-16669
先前	-16670
藏有	-16671
試驗	-16672
鬧佢	-16673
嫁喇	-16674
雞皮	-16675
嘅聲音	-16676
的速度	-16677
▁2022	-16678
悲觀	-16679
殺曬	-16680
ang	-16681
▁泰	-16682
呢世	-16683
好麻煩	-16684
年紀大	-16685
舉行的	-16686
學友	-16687
實會	-16688
買多	-16689
金庸	-16690
▁就會	-16691
就係我	-16692
升旗	-16693
思樂	-16694
輸曬	-16695
▁立場	-16696
爆出嚟	-16697
感覺良好	-16698
短髮	-16699
仲未計	-16700
到癡線	-16701
▁星期五	-16702
咁大個人	-16703
傳遞	-16704
扮工	-16705
歲月	-16706
一大班	-16707
代表團	-16708
▁我懷疑	-16709
都買唔到	-16710
毅力	-16711
開完	-16712
▁修	-16713
即走	-16714
小強	-16715
本會	-16716
阿妹	-16717
▁新聞	-16718
出咗事	-16719
唔係唔	-16720
合情合理	-16721
十多	-16722
衰退	-16723
謹申	-16724
鋼鐵	-16725
為他	-16726
只係得	-16727
▁香	-16728
二三	-16729
五千	-16730
諗嘢	-16731
約咗	-16732
了下來	-16733
嘴脣	-16734
指南	-16735
一年半	-16736
▁可能我	-16737
尖咀	-16738
點了	-16739
年就	-16740
幾鐘	-16741
胃口	-16742
雨天	-16743
就係有	-16744
甚至係	-16745
搜身	-16746
由其	-16747
二百萬	-16748
港超聯	-16749
家輝	-16750
恒生	-16751
西灣河	-16752
點都好過	-16753
登上	-16754
的頭	-16755
究極	-16756
▁工作	-16757
我只是	-16758
的意見	-16759
都講咗	-16760
就玩	-16761
羅湖	-16762
達人	-16763
作風	-16764
是最	-16765
留到	-16766
車程	-16767
開學	-16768
▁老闆	-16769
納稅人	-16770
唔關我事	-16771
▁f	-16772
傾過	-16773
兌換	-16774
叻仔	-16775
心的	-16776
▁冇咗	-16777
▁班友	-16778
就好笑	-16779
係咁上下	-16780
▁墨	-16781
創傷	-16782
獨家	-16783
賣點	-16784
車費	-16785
醉酒	-16786
一世紀	-16787
好清楚	-16788
我反而	-16789
支配	-16790
水嘅	-16791
▁貴	-16792
交往	-16793
二十年	-16794
冇得救	-16795
咁大聲	-16796
▁同佢講	-16797
放置	-16798
我身邊	-16799
網球	-16800
詭異	-16801
自己冇	-16802
鄧小平	-16803
嚟嚟去去	-16804
▁野	-16805
介面	-16806
睇中	-16807
膚淺	-16808
華頓	-16809
骨頭	-16810
▁500	-16811
▁衛	-16812
族羣	-16813
款項	-16814
向中國	-16815
老闆娘	-16816
▁全部都係	-16817
亨利	-16818
同唔	-16819
打丁	-16820
塔利班	-16821
上流	-16822
只求	-16823
聲優	-16824
露臺	-16825
鞏固	-16826
驚過	-16827
▁好在	-16828
紐西蘭	-16829
敏敏	-16830
更強	-16831
特效	-16832
自學	-16833
▁有乜	-16834
做得出	-16835
我都要	-16836
區域法院	-16837
民望	-16838
開通	-16839
係人都	-16840
向美國	-16841
畢業後	-16842
以為自己係	-16843
善意	-16844
屌狗	-16845
勁耐	-16846
▁這些	-16847
無人機	-16848
郊野公園	-16849
都可以用	-16850
▁真係好撚	-16851
右上	-16852
流星	-16853
為首	-16854
可以在	-16855
就可能	-16856
面對面	-16857
繼續努力	-16858
心照	-16859
有腳	-16860
水上	-16861
熱誠	-16862
祈求	-16863
退場	-16864
驗傷	-16865
15000	-16866
到傻	-16867
我比	-16868
有如	-16869
規格	-16870
高高	-16871
▁嗰時	-16872
自己啲	-16873
都唔關	-16874
無間	-16875
轉生	-16876
二奶	-16877
古屋	-16878
波羅	-16879
相近	-16880
租客	-16881
遺忘	-16882
嘅劇情	-16883
都算係咁	-16884
嘅錯	-16885
細過	-16886
齊士	-16887
係咩嚟	-16888
又唔同	-16889
唔知你	-16890
利迷	-16891
拍得	-16892
-24	-16893
▁跳	-16894
先出嚟	-16895
幾千萬	-16896
細路女	-16897
▁道	-16898
戰後	-16899
能在	-16900
▁拍拖	-16901
不能再	-16902
同你地	-16903
做乜撚野	-16904
兩季	-16905
可能佢	-16906
自己就	-16907
個袋	-16908
去埋	-16909
提防	-16910
炸雞	-16911
都支持	-16912
解體	-16913
長線	-16914
韓劇	-16915
▁收到	-16916
你老婆	-16917
滋味	-16918
金仔	-16919
▁而加	-16920
2800	-16921
咗陣	-16922
扮野	-16923
散發	-16924
港口	-16925
我開始	-16926
有更多	-16927
天上	-16928
拎過	-16929
敵對	-16930
極致	-16931
會俾人	-16932
萬幾蚊	-16933
學車	-16934
帳戶	-16935
關頭	-16936
周星馳	-16937
想睇吓	-16938
最多隻	-16939
歐國盃	-16940
咖喱	-16941
推高	-16942
調動	-16943
▁新年	-16944
人妻	-16945
大肆	-16946
常規	-16947
樣的	-16948
縱使	-16949
膝頭	-16950
電視機	-16951
拖垮邪惡	-16952
一期	-16953
大喊	-16954
好熟	-16955
果實	-16956
果隊	-16957
▁有興趣	-16958
▁閪	-16959
個鼻	-16960
有部分	-16961
銀行戶口	-16962
=8	-16963
▁屎	-16964
名詞	-16965
違約	-16966
領展	-16967
做啲咩	-16968
唔抽	-16969
月至	-16970
的你	-16971
▁死咗	-16972
加劇	-16973
鬥士	-16974
一億	-16975
分期	-16976
漫長	-16977
起跳	-16978
開佢	-16979
咩好	-16980
曬你	-16981
搭黨鐵	-16982
繼續用	-16983
咪當	-16984
所指	-16985
推倒	-16986
眼球	-16987
我現在	-16988
出位	-16989
常用	-16990
得就	-16991
角咀	-16992
210	-16993
▁一切	-16994
封站	-16995
巨頭	-16996
死過	-16997
高舉	-16998
鴉片	-16999
香港已經	-17000
房署	-17001
咁都要	-17002
唔想睇	-17003
先比	-17004
徒弟	-17005
甩咗	-17006
的狀態	-17007
美國旗	-17008
▁遊行路線	-17009
大神	-17010
收買	-17011
▁打到	-17012
法律界	-17013
金融業	-17014
ab	-17015
執業	-17016
盃賽	-17017
題外	-17018
▁任	-17019
笑佢	-17020
自取	-17021
傻啦	-17022
氣球	-17023
私刑	-17024
突襲	-17025
血肉	-17026
長傳	-17027
係你地	-17028
唔識用	-17029
自己要	-17030
就跟	-17031
▁移民	-17032
巖唔巖	-17033
左腳定	-17034
都唔會再	-17035
ont	-17036
改變到	-17037
涂謹申	-17038
加持	-17039
旋轉	-17040
以外嘅	-17041
又比人	-17042
用嚟做	-17043
係叫	-17044
個性	-17045
每週	-17046
吓吓都	-17047
嘅人工	-17048
無必要	-17049
使乜	-17050
常態	-17051
嗰個位	-17052
▁男朋友	-17053
個張	-17054
寫真	-17055
贏錢	-17056
/20	-17057
咪幾好	-17058
其中一隻	-17059
三餐	-17060
二號	-17061
同住	-17062
無牌	-17063
考官	-17064
119	-17065
433	-17066
的空間	-17067
可以睇到	-17068
本身都係	-17069
真係有人	-17070
停賽	-17071
阻嚇	-17072
又唔肯	-17073
去連儂牆	-17074
夠用	-17075
薯仔	-17076
浪費咗	-17077
▁睇得出	-17078
大減	-17079
會好似	-17080
總會有	-17081
咗未	-17082
個垃圾	-17083
無力感	-17084
結婚生仔	-17085
大臣	-17086
透社	-17087
▁叫人	-17088
▁高登	-17089
反極權	-17090
結束後	-17091
▁想問下	-17092
一地兩檢	-17093
時任	-17094
港足	-17095
致敬	-17096
迪奧	-17097
成功嘅	-17098
可能只係	-17099
▁另一方面	-17100
咁驚	-17101
培育	-17102
山狗	-17103
想著	-17104
李克	-17105
迫使	-17106
自己無	-17107
配置	-17108
食返	-17109
上一個	-17110
新屋嶺還眼	-17111
▁圍	-17112
男神	-17113
話個	-17114
隨着	-17115
,15	-17116
▁無咗	-17117
最安全	-17118
有冇可能	-17119
▁有冇人覺得	-17120
去幫	-17121
把啦	-17122
政改	-17123
死前	-17124
自己整	-17125
嘅得利益	-17126
兩部	-17127
大豆	-17128
打唔	-17129
業餘	-17130
雪雪	-17131
嘅狗	-17132
安仔	-17133
百人	-17134
飲完	-17135
我地有	-17136
的畫面	-17137
勝率	-17138
執教	-17139
對沖	-17140
玩鳩	-17141
125	-17142
▁你當	-17143
亦都有	-17144
召集人	-17145
所以唔	-17146
唔知幾多	-17147
真係好好	-17148
拖累	-17149
中二病	-17150
▁※	-17151
封城	-17152
波嘅	-17153
特工	-17154
鋼筋	-17155
喜茶	-17156
罪人	-17157
賽果	-17158
阻擋	-17159
其實同	-17160
支持政府	-17161
面對現實	-17162
不忘	-17163
理我	-17164
公信力	-17165
招商	-17166
而上	-17167
風光	-17168
(21	-17169
幾時開始	-17170
一組	-17171
依照	-17172
1.8	-17173
▁不知	-17174
下午茶	-17175
呢兩年	-17176
迴旋處	-17177
點點頭	-17178
係種	-17179
截查	-17180
每隻	-17181
▁自問	-17182
嘅話我	-17183
有咩意義	-17184
不留	-17185
月球	-17186
瞓啦	-17187
主教練	-17188
佢地啲	-17189
納米	-17190
職場	-17191
▁民主	-17192
奧斯卡	-17193
很大的	-17194
真係好勁	-17195
▁我都試過	-17196
上邊	-17197
二線	-17198
咁計	-17199
嗰集	-17200
潔癖	-17201
燒到	-17202
耳朵	-17203
頭皮	-17204
在一個	-17205
od	-17206
段野	-17207
的海	-17208
老共	-17209
陣味	-17210
顯著	-17211
不一樣	-17212
下文	-17213
夠曬	-17214
救生	-17215
梳士	-17216
自用	-17217
▁過多	-17218
五毛狗	-17219
間餐廳	-17220
▁洛	-17221
顫抖	-17222
▁我明白	-17223
得好辛苦	-17224
失調	-17225
得更	-17226
打我	-17227
神的	-17228
始至終	-17229
點左右	-17230
奇異	-17231
幅度	-17232
搵唔	-17233
教材	-17234
路嘅	-17235
高院	-17236
世界觀	-17237
關心吓	-17238
如果有人	-17239
▁癡	-17240
中指	-17241
從後	-17242
用啲	-17243
▁不論	-17244
唔係無	-17245
女同事	-17246
搭飛機	-17247
上加	-17248
車房	-17249
迷失	-17250
連個	-17251
飛天	-17252
▁活動	-17253
第二度	-17254
好唔開心	-17255
▁偷	-17256
▁各	-17257
中介	-17258
山區	-17259
牆壁	-17260
用埋	-17261
秋後	-17262
追殺	-17263
俾我地	-17264
嘉年華	-17265
奴性	-17266
毋忘	-17267
號到	-17268
▁97	-17269
▁果個	-17270
坐騎	-17271
獄中	-17272
英軍	-17273
要跟	-17274
貴啲	-17275
點到	-17276
▁但又	-17277
共同體	-17278
意味著	-17279
時間係	-17280
所有人都	-17281
年宵	-17282
企係度	-17283
好似都係	-17284
真係睇到	-17285
對錯	-17286
是被	-17287
腦細	-17288
="8	-17289
有經驗	-17290
一拍	-17291
落馬	-17292
先講啦	-17293
證明到	-17294
高登仔	-17295
]@1.	-17296
嗰張	-17297
演變	-17298
講座	-17299
▁劇情	-17300
出租	-17301
嘿嘿	-17302
▁新界	-17303
------	-17304
<<	-17305
口臭	-17306
幾步	-17307
求診	-17308
輸送	-17309
好擔心	-17310
是這樣	-17311
聲譽	-17312
觸犯	-17313
值唔值	-17314
不信	-17315
了的	-17316
方言	-17317
點就	-17318
工種	-17319
想人	-17320
把她	-17321
拎完	-17322
爆出	-17323
紙皮	-17324
裏的	-17325
陰陰	-17326
鳩吓	-17327
之前都	-17328
▁d	-17329
來臨	-17330
強權	-17331
我當	-17332
聽你	-17333
解脫	-17334
重係	-17335
▁依啲	-17336
呀大佬	-17337
-0.5/	-17338
一諗	-17339
已完	-17340
昔日	-17341
社長	-17342
開新	-17343
國際賽	-17344
歐洲人	-17345
頂得順	-17346
1993	-17347
告別	-17348
呵呵	-17349
瞓街	-17350
觀音	-17351
體質	-17352
2:0	-17353
要好好	-17354
同香港人	-17355
嘅話可以	-17356
是常識吧	-17357
▁毒	-17358
下月	-17359
出賽	-17360
認咗	-17361
軍官	-17362
風球	-17363
鹹魚	-17364
抗生素	-17365
正言順	-17366
頭版	-17367
冚家鏟	-17368
自我中心	-17369
使出	-17370
在先	-17371
我等	-17372
女手足	-17373
經濟學	-17374
早在	-17375
覆診	-17376
▁電影	-17377
不小心	-17378
咩原因	-17379
+5	-17380
傳球	-17381
巫師	-17382
毫子	-17383
要行	-17384
買隻	-17385
鎖定	-17386
好好嘅	-17387
跑馬地	-17388
好忙	-17389
淚水	-17390
衝鋒	-17391
迎合	-17392
十一月	-17393
議事規則	-17394
呻吟	-17395
係咪冇	-17396
咪唔好	-17397
架巴士	-17398
入罪	-17399
圍捕	-17400
情形	-17401
沖繩	-17402
賤人	-17403
身軀	-17404
里活	-17405
▁聯賽	-17406
五個月	-17407
幾好食	-17408
發聲明	-17409
全線	-17410
掛機	-17411
是指	-17412
簽訂	-17413
金毛	-17414
嘅資訊	-17415
康文署	-17416
日程表	-17417
樓主係	-17418
肯定會	-17419
啟用	-17420
妓女	-17421
扭轉	-17422
普羅	-17423
事件的	-17424
口交部	-17425
這麼多	-17426
▁原來係	-17427
成為一個	-17428
▁離	-17429
怕咩	-17430
收成	-17431
一齊打	-17432
政治人	-17433
轉會窗	-17434
▁777	-17435
心嘅	-17436
拖手	-17437
日劇	-17438
255	-17439
不明白	-17440
得好勁	-17441
真係有啲	-17442
都係咁話	-17443
兩支	-17444
咁平	-17445
問嚇	-17446
同藍絲	-17447
多咗人	-17448
少少野	-17449
收留	-17450
財物	-17451
都放	-17452
▁不過其實	-17453
倚天	-17454
1,000	-17455
,0	-17456
不勝	-17457
光暗	-17458
嚴峻	-17459
姓名	-17460
不被捕	-17461
你老味	-17462
文田	-17463
通行	-17464
238	-17465
啪啪啪	-17466
大家對	-17467
自己決定	-17468
嘢嘅	-17469
屌吓	-17470
教佢	-17471
有貨	-17472
痾屎	-17473
啲人話	-17474
新世界	-17475
仲快	-17476
零蚊	-17477
果幾個	-17478
▁受	-17479
空降	-17480
上熱門	-17481
雖然我	-17482
▁你老味	-17483
警黑	-17484
▁35	-17485
有一隻	-17486
嗰份	-17487
搞佢	-17488
明朝	-17489
而佢	-17490
大區嘅	-17491
日下午	-17492
那麼多	-17493
外籍	-17494
投放	-17495
缺口	-17496
▁得返	-17497
咁似	-17498
搶咗	-17499
肉食	-17500
鰂魚	-17501
的就是	-17502
陣地戰	-17503
▁721811831	-17504
得滯	-17505
玩弄	-17506
開出	-17507
-16	-17508
大唔大	-17509
係人都知	-17510
▁撚	-17511
稅務	-17512
而行	-17513
厚麪皮	-17514
唔比你	-17515
有市民	-17516
儒家	-17517
八字	-17518
單打	-17519
類別	-17520
▁仲係	-17521
▁港豬	-17522
一名男子	-17523
印刷	-17524
屠城	-17525
應當	-17526
笑吓	-17527
腳趾	-17528
另一隻	-17529
▁俄羅斯	-17530
五官	-17531
快點	-17532
豬頭	-17533
訪問時	-17534
大中華膠	-17535
打橫	-17536
比比	-17537
唔好諗住	-17538
攞住	-17539
踴躍	-17540
》()	-17541
啦屌你	-17542
時期嘅	-17543
上機	-17544
加拉	-17545
合同	-17546
好慢	-17547
未撚	-17548
發力	-17549
處處	-17550
175	-17551
交通意外	-17552
中上	-17553
向著	-17554
嗚嗚	-17555
太難	-17556
趁機	-17557
唔係用	-17558
共黨	-17559
凡事	-17560
反智	-17561
寬頻	-17562
金幣	-17563
▁70	-17564
▁同我	-17565
打得贏	-17566
而家個	-17567
諗諗吓	-17568
一枝	-17569
突顯	-17570
伏筆	-17571
做多	-17572
吸納	-17573
商鋪	-17574
喫喝	-17575
水水	-17576
清零	-17577
版嘅	-17578
都唔需要	-17579
就怪	-17580
雙刀	-17581
▁現代	-17582
復必泰	-17583
寶貝	-17584
斷線	-17585
輸了	-17586
大革命	-17587
眼看	-17588
自此	-17589
咗一陣	-17590
張文宣	-17591
的一部分	-17592
六個	-17593
恐龍	-17594
星島	-17595
水果	-17596
1992	-17597
人對	-17598
生長	-17599
穿咗	-17600
豉油	-17601
食客	-17602
都識講	-17603
li	-17604
嗰到	-17605
彼得	-17606
漢語	-17607
警區	-17608
但已經	-17609
唔係冇	-17610
年在	-17611
臨牀	-17612
十抽	-17613
大白	-17614
攔截	-17615
收尾	-17616
由香港	-17617
去馬	-17618
房子	-17619
熄咗	-17620
萬聖	-17621
唔到我	-17622
第一部	-17623
性情	-17624
叫自己	-17625
真心想	-17626
荷里活	-17627
告佢	-17628
咗落	-17629
貧富	-17630
▁少女	-17631
極有限	-17632
舒服啲	-17633
同好	-17634
105	-17635
423	-17636
▁運動	-17637
趕時間	-17638
就係一個	-17639
促請	-17640
入房	-17641
分辨	-17642
差嘅	-17643
都係死	-17644
入完	-17645
半格	-17646
圍牆	-17647
睇路	-17648
背影	-17649
輸俾	-17650
阿嬸	-17651
躺平	-17652
唔影響	-17653
提供的	-17654
扶手電梯	-17655
一滴	-17656
執返	-17657
幾億	-17658
廿萬	-17659
有片	-17660
約莫	-17661
膠紙	-17662
都搞唔掂	-17663
住得	-17664
入來	-17665
入座	-17666
南非	-17667
又快	-17668
啊媽	-17669
報章	-17670
好轉	-17671
身價	-17672
食雞	-17673
▁你會	-17674
▁個樣	-17675
係基本	-17676
十幾年前	-17677
搞埋	-17678
燈柱	-17679
▁想像	-17680
心軟	-17681
▁為何	-17682
頒獎禮	-17683
個段	-17684
平淡	-17685
很少	-17686
變過	-17687
谷住	-17688
但至少	-17689
急症室	-17690
出水	-17691
接貨	-17692
遇見	-17693
▁老師	-17694
這也是	-17695
成個香港	-17696
我走	-17697
收取	-17698
這邊	-17699
國產	-17700
整整	-17701
時侯	-17702
褲袋	-17703
視察	-17704
乘機	-17705
地主	-17706
如其	-17707
要為	-17708
親切	-17709
開設	-17710
唔洗做	-17711
佢再	-17712
全個	-17713
分鍾	-17714
▁一來	-17715
唔可能	-17716
比黑警	-17717
落嚟香港	-17718
香港親中派	-17719
(6	-17720
他會	-17721
就拉	-17722
本金	-17723
牙齒	-17724
龍女	-17725
嚟個	-17726
每場	-17727
錢去	-17728
喺日本	-17729
見到佢地	-17730
15:00	-17731
內涵	-17732
原著	-17733
外型	-17734
便可	-17735
都升	-17736
1.0	-17737
260	-17738
世界末日	-17739
成日覺得	-17740
到手	-17741
精準	-17742
逼你	-17743
隻狗咁	-17744
香港民主	-17745
國土	-17746
無分	-17747
而你	-17748
不支持	-17749
今日係	-17750
咗幾耐	-17751
都淨係	-17752
公認	-17753
千奇	-17754
撚部	-17755
玩嘢	-17756
炮臺山	-17757
1991	-17758
之分	-17759
簡介	-17760
令到佢	-17761
咁撚柒	-17762
一幕	-17763
之選	-17764
時嘅	-17765
靚過	-17766
高汁	-17767
比較少	-17768
的經濟	-17769
咁大件事	-17770
坊間	-17771
壯大	-17772
磚頭	-17773
▁東京	-17774
▁你應該	-17775
▁柏	-17776
回調	-17777
目睹	-17778
中美貿易戰	-17779
)?	-17780
再諗	-17781
▁呢隊	-17782
都要用	-17783
先換	-17784
眼角	-17785
▁佢要	-17786
▁民陣	-17787
仆街死	-17788
無意思	-17789
都冇咁	-17790
席位	-17791
志在	-17792
條腰	-17793
間舖	-17794
的言論	-17795
加薪	-17796
講好	-17797
已經算	-17798
▁格	-17799
指紋	-17800
物料	-17801
真喺	-17802
代理人	-17803
張建宗	-17804
打招呼	-17805
俗稱	-17806
獲釋	-17807
精液	-17808
舊樓	-17809
豬閪	-17810
▁比我	-17811
又唔使	-17812
消費券	-17813
無得救	-17814
開心嘅	-17815
▁立	-17816
卻又	-17817
鬧鐘	-17818
同一條	-17819
••••	-17820
大條道理	-17821
會見	-17822
會買	-17823
粗暴	-17824
企係到	-17825
所以想	-17826
電動車	-17827
1:1	-17828
▁灣仔	-17829
折扣	-17830
0:0	-17831
換美金	-17832
都預咗	-17833
等地	-17834
衣物	-17835
警惕	-17836
量度	-17837
仲有啲	-17838
做到野	-17839
好撚慘	-17840
戰鬥力	-17841
都唔中	-17842
▁有冇人可以	-17843
埋門	-17844
任何文件	-17845
港共政權	-17846
▁趙	-17847
仲喺	-17848
戒賭	-17849
續指	-17850
考量	-17851
一齊死	-17852
你就要	-17853
七個	-17854
冇撚	-17855
完先	-17856
▁主場	-17857
▁一係你	-17858
德文	-17859
車禍	-17860
(12	-17861
一聽到	-17862
個畫面	-17863
可以揀	-17864
好可愛	-17865
而家先	-17866
梳士巴利	-17867
都成問題	-17868
都有少少	-17869
尖叫	-17870
新星	-17871
民居	-17872
第八	-17873
嘅性格	-17874
放上網	-17875
開咗個	-17876
人走	-17877
娘娘	-17878
老貓	-17879
大嶼山	-17880
死毒撚	-17881
純粹係	-17882
物理治療	-17883
▁問吓	-17884
▁望住	-17885
簡體字	-17886
配音員	-17887
▁一開波	-17888
我不知道	-17889
▁不過我覺得	-17890
上集	-17891
巨龍	-17892
拿卡	-17893
▁重有	-17894
一包	-17895
搞好	-17896
自責	-17897
▁皇馬	-17898
嘅文化	-17899
拜年	-17900
肚腩	-17901
一早就	-17902
留係屋企	-17903
使得	-17904
陪同	-17905
取決於	-17906
▁撐	-17907
中一	-17908
咁問	-17909
新工	-17910
獲利	-17911
貼近	-17912
靚啲	-17913
飛到	-17914
排行	-17915
聞言	-17916
閉門	-17917
▁聖誕	-17918
做錯野	-17919
新華社	-17920
內會	-17921
搵野	-17922
男士	-17923
反而會	-17924
睇到佢	-17925
個小朋友	-17926
動盪	-17927
屈你	-17928
往死	-17929
沿岸	-17930
火化	-17931
繁體	-17932
速成	-17933
白衣人	-17934
上課	-17935
係勁	-17936
獎項	-17937
無野做	-17938
的意義	-17939
左腳定右腳	-17940
毀壞	-17941
對我地	-17942
▁你有無	-17943
殘疾	-17944
用電	-17945
短缺	-17946
他們是	-17947
咪繼續	-17948
唔俾人	-17949
有資格	-17950
咁行	-17951
威嚇	-17952
得少	-17953
▁兩隻	-17954
有一大	-17955
特別多	-17956
上癮	-17957
借啲	-17958
太長	-17959
詞彙	-17960
到喊	-17961
原裝	-17962
巨型	-17963
意欲	-17964
粒石	-17965
九年	-17966
咗喺	-17967
嫁喎	-17968
打入	-17969
穿梭	-17970
都會係	-17971
偷雞	-17972
四分	-17973
文觀	-17974
月光	-17975
歷戰	-17976
練吓	-17977
長槍	-17978
▁反對	-17979
▁情況	-17980
屌柒佢	-17981
我都唔想	-17982
?]	-17983
出走	-17984
咗咩	-17985
攜帶	-17986
蛋牛	-17987
送上	-17988
餐飲	-17989
佢成日	-17990
不開	-17991
可在	-17992
派系	-17993
甜蜜	-17994
聲氣	-17995
我都知	-17996
9999	-17997
仲難	-17998
擺低	-17999
收割	-18000
波幅	-18001
熱度	-18002
邊忽	-18003
嘅發展	-18004
惡行	-18005
推推	-18006
蘇梓	-18007
▁好少	-18008
咩事啦	-18009
的女人	-18010
都係你	-18011
香港同	-18012
的士司機	-18013
一鑊	-18014
但仍	-18015
唔幫	-18016
斷手	-18017
甲組	-18018
番起	-18019
空地	-18020
野蠻	-18021
▁利伸	-18022
甴近平	-18023
代購	-18024
曬去	-18025
衝出	-18026
風頭	-18027
▁距離	-18028
▁辯方	-18029
唔到就	-18030
好多謝	-18031
縮返入	-18032
每個人都有	-18033
引爆	-18034
會諗	-18035
龐大	-18036
入去睇	-18037
$$	-18038
沒錯	-18039
觀光	-18040
冇時間	-18041
食黃店	-18042
課長	-18043
駐守	-18044
盡全力	-18045
著我的	-18046
▁正常人	-18047
手袋	-18048
歸於	-18049
屌咗	-18050
文具	-18051
文筆	-18052
松泰	-18053
過啲	-18054
▁每年	-18055
後遺症	-18056
更換	-18057
罵戰	-18058
阻撓	-18059
唔知係	-18060
唔係嘅話	-18061
▁夢	-18062
專政	-18063
東尼	-18064
百歲	-18065
糧出	-18066
辱罵	-18067
初頭	-18068
半點	-18069
回落	-18070
扣留	-18071
老死	-18072
茂波	-18073
———	-18074
呀屌你	-18075
好有用	-18076
果期	-18077
傳染病	-18078
無可疑	-18079
莫斯科	-18080
關注組	-18081
呢三	-18082
布朗	-18083
從前	-18084
禁住	-18085
糾正	-18086
真係難	-18087
▁極	-18088
套現	-18089
返落	-18090
做奴隸	-18091
我哋要	-18092
通常都	-18093
▁有幾多	-18094
加重	-18095
緊我	-18096
都諗	-18097
勞動力	-18098
嘅連登仔	-18099
▁看	-18100
一數	-18101
不宜	-18102
地形	-18103
萬能	-18104
▁鬼佬	-18105
有人用	-18106
每一日	-18107
都未夠	-18108
國難五金	-18109
得勁	-18110
狗鐵	-18111
去投票	-18112
唔排除	-18113
我唔覺得	-18114
並指	-18115
兩項	-18116
可用	-18117
大亂	-18118
式嘅	-18119
水塘	-18120
細聲	-18121
達至	-18122
金銀	-18123
▁但有	-18124
奶共狗	-18125
都唔怕	-18126
未曾	-18127
舉個	-18128
」。」	-18129
個仆街	-18130
講得啱	-18131
............	-18132
▁別	-18133
哨兵	-18134
大王	-18135
感性	-18136
白鴿	-18137
講字	-18138
220	-18139
創辦人	-18140
子宮	-18141
舊登	-18142
評級	-18143
門面	-18144
唔好咩	-18145
曾經喺	-18146
巴比	-18147
打了	-18148
揀個	-18149
換來	-18150
馬迪	-18151
▁無知	-18152
成功咗	-18153
都可以有	-18154
▁番	-18155
果頭	-18156
莊家	-18157
龔水	-18158
6.9	-18159
903	-18160
睇佢地	-18161
過去的	-18162
1020	-18163
乜都唔做	-18164
又識	-18165
嗰頭	-18166
辛祖	-18167
亂鳩咁	-18168
地看著	-18169
坐巴士	-18170
強積金	-18171
等大家	-18172
得不	-18173
會談	-18174
沉船	-18175
股息	-18176
養生	-18177
▁東方	-18178
就梗係	-18179
生存到	-18180
認為係	-18181
塑造	-18182
網店	-18183
好努力	-18184
▁喺香港	-18185
石抽	-18186
自保	-18187
自尊	-18188
了一會	-18189
設計師	-18190
講咗句	-18191
邊行	-18192
有一班	-18193
聽唔明	-18194
2046	-18195
外流	-18196
確立	-18197
解開	-18198
廚房佬	-18199
)-30	-18200
絕大部分	-18201
一回	-18202
手錶	-18203
送死	-18204
一齊返	-18205
中國內政	-18206
廠商	-18207
投機	-18208
死埋	-18209
(29	-18210
不如你	-18211
不少人	-18212
我又唔	-18213
而知	-18214
佢老婆	-18215
嘅只係	-18216
差咁遠	-18217
真係同	-18218
一個問題	-18219
位係	-18220
光時	-18221
數以	-18222
會開	-18223
▁有邊個	-18224
華夏	-18225
話哂	-18226
嚟睇吓	-18227
▁寶	-18228
上緊	-18229
凱旋	-18230
嘅機	-18231
癲佬	-18232
笑笑口	-18233
下身	-18234
兩成	-18235
分流	-18236
我不是	-18237
區分	-18238
多條	-18239
好怪	-18240
抓住	-18241
毫米	-18242
網購	-18243
-23	-18244
以前係	-18245
復仇者	-18246
搬龍門	-18247
決定咗	-18248
偉聰	-18249
叫個	-18250
親屬	-18251
▁搵個	-18252
▁計埋	-18253
唱國歌	-18254
好撚驚	-18255
▁721831	-18256
出閘	-18257
套路	-18258
擊殺	-18259
署長	-18260
頭的	-18261
、3	-18262
再唔	-18263
匿埋	-18264
挽留	-18265
齊人	-18266
▁去咗	-18267
比中共	-18268
生活費	-18269
都唔開	-18270
我女朋友	-18271
▁點解可以	-18272
主體	-18273
先囉	-18274
去信	-18275
遺體	-18276
順豐	-18277
鬼國	-18278
▁遊戲	-18279
都可以做	-18280
下滑	-18281
入學	-18282
爆破	-18283
線嘅	-18284
罪惡	-18285
證據證明	-18286
夏季	-18287
杰倫	-18288
行駛	-18289
面罩	-18290
$20	-18291
安定	-18292
ung	-18293
▁聽聞	-18294
唯一的	-18295
我們會	-18296
每天平均	-18297
唱衰	-18298
我信	-18299
文法	-18300
碰撞	-18301
達標	-18302
好緊張	-18303
當時的	-18304
金像獎	-18305
可以點做	-18306
好似我咁	-18307
▁迷	-18308
住啦	-18309
來來	-18310
料理	-18311
日先	-18312
都廢	-18313
只係因為	-18314
衰仔	-18315
變番	-18316
退錢	-18317
俾機會	-18318
嘅主要	-18319
中國經濟	-18320
幾個月前	-18321
淨低	-18322
獎牌	-18323
維港	-18324
食唔食	-18325
▁黃大仙	-18326
都唔撚識	-18327
你見	-18328
匿名	-18329
呢款	-18330
如意	-18331
而有	-18332
我還是	-18333
被問到	-18334
分支	-18335
噁英	-18336
慣性	-18337
牛軍	-18338
空置	-18339
位手足	-18340
好消息	-18341
文觀財	-18342
講英文	-18343
國有	-18344
多野	-18345
影帝	-18346
政綱	-18347
盡咗	-18348
空手	-18349
我唔明	-18350
公職人員	-18351
▁如果我係	-18352
四肢	-18353
拎起	-18354
清除	-18355
啊屌你老母	-18356
一輛	-18357
去問	-18358
多句	-18359
落差	-18360
貓狗	-18361
▁老細	-18362
祕書長	-18363
後人	-18364
無再	-18365
牛角	-18366
離岸	-18367
分鐘就	-18368
嘅睇法	-18369
女同學	-18370
擺明係	-18371
無能力	-18372
又靚	-18373
大衛	-18374
歪理	-18375
各自努力	-18376
.7	-18377
ot	-18378
之流	-18379
供款	-18380
懸殊	-18381
斜路	-18382
有樣	-18383
編曲	-18384
踢出	-18385
顧慮	-18386
三道	-18387
倒下	-18388
方的	-18389
不篤灰	-18390
到頭來	-18391
唔洗錢	-18392
嘅仆街	-18393
變成咁	-18394
個個都有	-18395
精神分裂	-18396
常威近代史	-18397
成龍	-18398
氣味	-18399
等吓	-18400
再決定	-18401
oc	-18402
係囉	-18403
分割	-18404
唔加	-18405
嚟用	-18406
安撫	-18407
強力	-18408
波就	-18409
潛伏	-18410
碌撚	-18411
預感	-18412
▁無計	-18413
題外話	-18414
▁普	-18415
到入	-18416
單元	-18417
暴行	-18418
葵青	-18419
走上	-18420
~~~	-18421
什麼事	-18422
對香港人	-18423
唔夠力	-18424
簽任何文件	-18425
肥閪	-18426
行者	-18427
▁更新	-18428
唔覺意	-18429
好快會	-18430
我終於	-18431
一樣都係	-18432
我就覺得	-18433
一共	-18434
拉打	-18435
會考	-18436
狗總	-18437
病者	-18438
同樓主	-18439
真係好有	-18440
數嘅	-18441
最靚	-18442
追查	-18443
▁罷工	-18444
▁救	-18445
世凱	-18446
在手	-18447
情歌	-18448
社福	-18449
參與者	-18450
其中一名	-18451
而家已經	-18452
.2	-18453
係身	-18454
得果	-18455
香檳	-18456
時間表	-18457
:5	-18458
協商	-18459
去救	-18460
日向	-18461
珠澳	-18462
血壓	-18463
洗手間	-18464
奉獻	-18465
咩情況	-18466
為大家	-18467
井底	-18468
冷漠	-18469
太廢	-18470
▁大約	-18471
▁講得	-18472
係後面	-18473
唔願意	-18474
應該用	-18475
▁一開頭	-18476
▁、	-18477
▁21	-18478
國聯軍	-18479
好似要	-18480
包住	-18481
旗號	-18482
玩埋	-18483
▁其餘	-18484
但我地	-18485
在內地	-18486
第一下	-18487
(,),	-18488
理撚得你	-18489
行政會議	-18490
杯麵	-18491
計到	-18492
雲南	-18493
上個	-18494
水同	-18495
致力	-18496
走埋	-18497
參加者	-18498
呢條片	-18499
直接用	-18500
過幾次	-18501
你女朋友	-18502
自古以來	-18503
表達意見	-18504
仲撚	-18505
奇妙	-18506
收埋埋	-18507
有一名	-18508
▁有人話	-18509
季節	-18510
歐陽	-18511
紅咗	-18512
討伐	-18513
▁我隻	-18514
玩遊戲	-18515
講普通話	-18516
春秋	-18517
死傷	-18518
罰錢	-18519
▁**	-18520
公屋仔	-18521
吹佢唔	-18522
咁仆街	-18523
報道指	-18524
與香港	-18525
上學	-18526
兩套	-18527
廣西	-18528
方呎	-18529
模特	-18530
癡住	-18531
食哂	-18532
係好撚	-18533
唔夠錢	-18534
第二朝	-18535
緊係要	-18536
係咁架啦	-18537
倖存	-18538
及早	-18539
埋怨	-18540
文藝	-18541
老翻	-18542
你做咩	-18543
出咗去	-18544
百分之	-18545
都會被	-18546
介石	-18547
單挑	-18548
太重	-18549
辦理	-18550
104	-18551
定係你	-18552
可唔	-18553
嘅神	-18554
小鬼	-18555
好緊要	-18556
1990	-18557
▁拆	-18558
死車	-18559
▁深圳	-18560
才發現	-18561
▁樣	-18562
喚醒	-18563
封路	-18564
給了	-18565
轉場	-18566
有冇人知	-18567
真係垃圾	-18568
開始已經	-18569
我國	-18570
早起	-18571
易過	-18572
牙膏	-18573
瞓低	-18574
碧雲	-18575
▁努力	-18576
係公司	-18577
地區的	-18578
我好想	-18579
知道你	-18580
從來都係	-18581
2,000	-18582
修補	-18583
性愛	-18584
旋律	-18585
架姐	-18586
自己搞	-18587
都未遲	-18588
咁慘	-18589
咁要	-18590
啟發	-18591
派嘅	-18592
邊嘅	-18593
不清楚	-18594
澳門人	-18595
呢集	-18596
惡性	-18597
逃亡	-18598
養老	-18599
▁國家	-18600
▁萬一	-18601
金正恩	-18602
金管局	-18603
頂唔到	-18604
問號	-18605
對開	-18606
煙霧	-18607
禮賓	-18608
輸埋	-18609
過千	-18610
▁官方	-18611
人地個	-18612
攞唔到	-18613
咁無	-18614
單親	-18615
就你	-18616
廁紙	-18617
所說	-18618
給她	-18619
親王	-18620
講哂	-18621
賺到錢	-18622
.3	-18623
唔愛	-18624
威爾	-18625
獅鳥	-18626
聘請	-18627
▁當中	-18628
st	-18629
取態	-18630
天線	-18631
白眼	-18632
鄭州	-18633
▁當我	-18634
有網民	-18635
記得佢	-18636
陳奕迅	-18637
一個女仔	-18638
▁曼	-18639
一舉	-18640
偷換	-18641
除夕	-18642
有其	-18643
101111	-18644
增援	-18645
由此	-18646
留戀	-18647
阿姨	-18648
▁是但啦	-18649
修訂逃犯條例	-18650
4)	-18651
城邦	-18652
治癒	-18653
自欺	-18654
人自殺身亡	-18655
.6	-18656
崩壞	-18657
食人	-18658
320	-18659
▁「2	-18660
企企	-18661
周身	-18662
愛好	-18663
是旦	-18664
自製	-18665
退化	-18666
▁我講	-18667
上到去	-18668
係去	-18669
兩手	-18670
粟米	-18671
論證	-18672
中學雞	-18673
亦唔會	-18674
嘅經驗	-18675
蔣介石	-18676
附近嘅	-18677
唔多唔少	-18678
皇家馬德里	-18679
▁尾	-18680
升班	-18681
強者	-18682
睇啲	-18683
又話要	-18684
▁賓	-18685
居多	-18686
慳錢	-18687
清晨	-18688
嘅理據	-18689
佢都唔會	-18690
一團	-18691
係全	-18692
盜竊	-18693
雲尼	-18694
不如唔好	-18695
呢個方法	-18696
打到仆街	-18697
▁爭	-18698
大技	-18699
抬起	-18700
係屬於	-18701
自己屋企	-18702
中到	-18703
增至	-18704
導體	-18705
迷惘	-18706
中國香港	-18707
炒樓	-18708
係唯一	-18709
▁能	-18710
燒賣	-18711
保安局	-18712
唔順眼	-18713
啲廢老	-18714
我一定會	-18715
負面情緒	-18716
都係差唔多	-18717
七人	-18718
加返	-18719
理科	-18720
打死人	-18721
解釋唔到	-18722
▁毛	-18723
樓層	-18724
雲山	-18725
一齊食	-18726
又話人	-18727
怎麼辦	-18728
發現有	-18729
真面目	-18730
咪又係咁	-18731
▁咗	-18732
▁賺	-18733
又差	-18734
同名	-18735
地問	-18736
食店	-18737
俾佢哋	-18738
成功率	-18739
無得輸	-18740
甚至連	-18741
香港人要	-18742
行前	-18743
開曬	-18744
優越感	-18745
唔敢講	-18746
不通	-18747
學員	-18748
性同	-18749
糖尿	-18750
齊曬	-18751
克斯	-18752
字典	-18753
心都	-18754
比特	-18755
▁想問嚇	-18756
扮哂	-18757
捐血	-18758
赤柱	-18759
達狗	-18760
嘅感情	-18761
▁阿仙奴	-18762
隱約	-18763
咁得閒	-18764
幾多歲	-18765
大家覺得	-18766
主攻	-18767
但也	-18768
年份	-18769
引來	-18770
戰狼	-18771
水警	-18772
炒人	-18773
答佢	-18774
表揚	-18775
點好	-18776
一嚟就	-18777
但有時	-18778
六口	-18779
叫埋	-18780
花花	-18781
便衣狗	-18782
冇人講	-18783
出返去	-18784
另外有	-18785
局部	-18786
更難	-18787
911	-18788
做緊野	-18789
三哥	-18790
型嘅	-18791
富力	-18792
這一切	-18793
係咪一定要	-18794
對了	-18795
時至	-18796
有人想	-18797
條八婆	-18798
自己好	-18799
鑽石山	-18800
▁咁多年	-18801
唔可以用	-18802
就過	-18803
親都	-18804
▁嘩屌	-18805
大個咗	-18806
旅遊巴	-18807
真定假	-18808
輕輕鬆	-18809
預算案	-18810
▁武	-18811
打比	-18812
:$2,	-18813
▁覺得自己	-18814
▁繼	-18815
寫作	-18816
睇我	-18817
60%	-18818
個班人	-18819
呢條路	-18820
▁仲可以	-18821
找出	-18822
色的	-18823
稻草人	-18824
企圖自殺	-18825
基本上係	-18826
不只	-18827
唔升	-18828
難題	-18829
你屙尿	-18830
冇撚用	-18831
早兩日	-18832
▁都可以	-18833
邊有可能	-18834
投共	-18835
落區	-18836
咗幾次	-18837
嗰陣起	-18838
重要嘅	-18839
唔係香港	-18840
同馬	-18841
重現	-18842
偉大嘅	-18843
這個人	-18844
和勇合一	-18845
停手	-18846
動態	-18847
重啟	-18848
2/3	-18849
條柒頭	-18850
科醫生	-18851
靜靜雞	-18852
▁831	-18853
▁不過都係	-18854
入會	-18855
再者	-18856
市面	-18857
護膚	-18858
▁正路	-18859
把撚咩	-18860
會為	-18861
滋擾	-18862
射精	-18863
賣出	-18864
騷亂	-18865
▁你問	-18866
先決定	-18867
▁我可以	-18868
(7	-18869
加以	-18870
廢紙	-18871
把劍	-18872
正職	-18873
無盡	-18874
▁22	-18875
半小時	-18876
而家有	-18877
凌駕	-18878
加攻	-18879
枱面	-18880
皇軍	-18881
要留	-18882
▁林奠	-18883
不會再	-18884
好似仲	-18885
有咩資格	-18886
住宿	-18887
嘅定義	-18888
足球隊	-18889
▁其實我都	-18890
自己一個人	-18891
果件	-18892
整齊	-18893
解僱	-18894
▁不了	-18895
▁好好	-18896
以為你	-18897
咩都唔做	-18898
,16	-18899
大紀元	-18900
是否有	-18901
蛋牛治	-18902
力氣	-18903
從小	-18904
收窄	-18905
故障	-18906
積蓄	-18907
可能仲	-18908
▁點解會	-18909
有咩特別	-18910
-0.5/-1	-18911
▁願	-18912
估價	-18913
修斯	-18914
倒是	-18915
就可	-18916
店鋪	-18917
掌控	-18918
個醫生	-18919
成個星期	-18920
一體	-18921
科目	-18922
覆佢	-18923
買平	-18924
搵到工	-18925
真係冇乜	-18926
搞你	-18927
諗下	-18928
警狗	-18929
冇必要	-18930
▁片	-18931
問及	-18932
好哂	-18933
畀啲	-18934
發爛	-18935
腳踢	-18936
蝦乾	-18937
越高	-18938
兩三個	-18939
無意義	-18940
▁.	-18941
七點	-18942
反派	-18943
東張	-18944
椰子	-18945
班女	-18946
評審	-18947
遮陣	-18948
個集	-18949
冰冰	-18950
卻不	-18951
收番	-18952
樽頸	-18953
把自己	-18954
▁依家係	-18955
▁遊	-18956
亂港	-18957
啦咩	-18958
志願	-18959
整完	-18960
流氓	-18961
美的	-18962
蘿莉	-18963
▁太多	-18964
佢哋會	-18965
無興趣	-18966
一詞	-18967
嘅支持	-18968
無時間	-18969
立場新聞	-18970
遊行集會	-18971
好多香港人	-18972
▁怪	-18973
▁醒	-18974
咪會	-18975
大口	-18976
入場睇	-18977
撒瑪利亞	-18978
▁最重要係	-18979
▁鏝	-18980
埋伏	-18981
誘因	-18982
▁據悉	-18983
出現的	-18984
就肯定	-18985
遮打道	-18986
睇下邊個	-18987
新型冠狀病毒	-18988
之旅	-18989
你也	-18990
阿記	-18991
為目標	-18992
發生在	-18993
就會覺得	-18994
勝算	-18995
央視	-18996
年都	-18997
手腕	-18998
教到	-18999
星級	-19000
條氣	-19001
▁26	-19002
你出嚟	-19003
冇得揀	-19004
佩奧	-19005
檢舉	-19006
近視	-19007
好似幾	-19008
競爭對手	-19009
化驗	-19010
孔子	-19011
打救	-19012
會按	-19013
由你	-19014
▁等佢	-19015
先睇到	-19016
可以入	-19017
研究吓	-19018
不吓	-19019
他日	-19020
兩黨	-19021
嘅戲	-19022
大狀	-19023
條鐵	-19024
的國際	-19025
▁民建聯	-19026
(9	-19027
以防	-19028
拎番	-19029
直上	-19030
禁令	-19031
踩到	-19032
車身	-19033
打份工	-19034
光譜	-19035
陛下	-19036
需時	-19037
▁天佑	-19038
▁特登	-19039
直接講	-19040
奢侈	-19041
得落	-19042
三號	-19043
悄悄	-19044
清光	-19045
睇直播	-19046
仲有其他	-19047
睇吓自己	-19048
選民登記	-19049
二樓	-19050
圍內	-19051
捐贈	-19052
一隻手	-19053
拿度	-19054
罷了	-19055
冇資格	-19056
嘅感受	-19057
有撚用咩	-19058
▁都係個句	-19059
笑住	-19060
警局	-19061
長城	-19062
823	-19063
大波妹	-19064
最多係	-19065
會自動	-19066
第三季	-19067
廢中廢老	-19068
▁印	-19069
假日	-19070
崛起	-19071
有四	-19072
黑店	-19073
個老婆	-19074
化妝品	-19075
就以為	-19076
法律上	-19077
現實中	-19078
傳銷	-19079
當正	-19080
落選	-19081
軌跡	-19082
食用	-19083
是我的	-19084
返中國	-19085
馬克思	-19086
▁其實唔係	-19087
你老母個閪	-19088
學系	-19089
打量	-19090
扣分	-19091
柱銘	-19092
童話	-19093
重症	-19094
5.5	-19095
做乜要	-19096
足總盃	-19097
▁咁當然	-19098
▁掉	-19099
上完	-19100
招數	-19101
運送	-19102
黃牌	-19103
可以一齊	-19104
上載	-19105
同心	-19106
▁上到	-19107
▁未有	-19108
你唔知	-19109
受有關	-19110
後生女	-19111
發展的	-19112
卡片	-19113
定必	-19114
後便	-19115
過濾	-19116
:50	-19117
覺得佢係	-19118
啲波	-19119
諗定	-19120
必要時	-19121
示威活動	-19122
輕輕鬆鬆	-19123
▁所以我覺得	-19124
企鵝	-19125
嫁咩	-19126
暴走	-19127
神社	-19128
▁革命	-19129
你都唔	-19130
俾政府	-19131
咗唔少	-19132
大好多	-19133
的活動	-19134
競技場	-19135
世界冠軍	-19136
國殤	-19137
智峯	-19138
穿上	-19139
舌頭	-19140
潛意識	-19141
唔對得住	-19142
力士	-19143
喜悅	-19144
心頭	-19145
新車	-19146
緩慢	-19147
我試過	-19148
元首	-19149
年第	-19150
無異	-19151
証據	-19152
▁事後	-19153
一個個	-19154
唔到錢	-19155
班學生	-19156
其實都幾	-19157
不等	-19158
升上	-19159
抽籤	-19160
書籍	-19161
腳踏	-19162
跨境	-19163
隻碟	-19164
▁第時	-19165
但他們	-19166
年成立	-19167
我完全	-19168
的事實	-19169
都係話	-19170
都廢事	-19171
但唔代表	-19172
果集	-19173
石仔	-19174
認到	-19175
類人	-19176
又唔講	-19177
見過佢	-19178
就最	-19179
翡翠	-19180
落底	-19181
但係又	-19182
認為是	-19183
過一排	-19184
點解決	-19185
演習	-19186
▁剛剛	-19187
蜘蛛俠	-19188
去得	-19189
搶走	-19190
改裝	-19191
正版	-19192
滿地	-19193
▁包括	-19194
並不會	-19195
到現在	-19196
整咗個	-19197
候選	-19198
山齊士	-19199
手足們	-19200
公眾人物	-19201
好耐之前	-19202
不讓	-19203
商舖	-19204
張貼	-19205
用啦	-19206
追討	-19207
▁出去	-19208
再慢慢	-19209
然後又	-19210
紅衛兵	-19211
/6/2019	-19212
入魔	-19213
升至	-19214
盡早	-19215
向政府	-19216
英文名	-19217
開放式	-19218
馬拉松	-19219
▁吓星期	-19220
客服	-19221
聯同	-19222
買曬	-19223
佢一個	-19224
▁隊	-19225
唔爆	-19226
多項	-19227
我呢	-19228
首選	-19229
ine	-19230
▁最少	-19231
搵藉口	-19232
相當於	-19233
就係咁簡單	-19234
ak	-19235
上哂	-19236
咩位	-19237
拖拍	-19238
人士的	-19239
指指點點	-19240
101112	-19241
會睇	-19242
膚色	-19243
要交	-19244
高清	-19245
(14	-19246
▁放工	-19247
但現在	-19248
你試吓	-19249
其實有	-19250
追唔到	-19251
見到好多	-19252
助選	-19253
掌聲	-19254
斷絕	-19255
近況	-19256
一定是	-19257
佢有冇	-19258
今次運動	-19259
哈利波特	-19260
抗赤納粹	-19261
")	-19262
之事	-19263
又輸	-19264
哥華	-19265
東海	-19266
東華	-19267
咗一排	-19268
就走咗	-19269
時無刻	-19270
的一天	-19271
華爾街	-19272
密切留意	-19273
足球聯賽	-19274
▁變	-19275
卡拉	-19276
借個位	-19277
強國人	-19278
這句話	-19279
=6	-19280
最盡	-19281
河北	-19282
1989	-19283
高速公路	-19284
儀器	-19285
搵仔	-19286
雙腿	-19287
▁玩咗	-19288
內地人	-19289
那就是	-19290
覺得香港	-19291
二萬	-19292
對華	-19293
教吓	-19294
灌輸	-19295
當值	-19296
鴻基	-19297
(11	-19298
人工高	-19299
嘅政府	-19300
嚴謹	-19301
安琪	-19302
本營	-19303
流量	-19304
55"	-19305
▁St	-19306
都係假	-19307
▁最好笑	-19308
可笑	-19309
熱心	-19310
臉書	-19311
飯碗	-19312
終有一日	-19313
。。。。。。	-19314
不失	-19315
不服	-19316
嘅第	-19317
狗竇	-19318
開去	-19319
▁又有	-19320
▁呢次	-19321
你只係	-19322
拉莫斯	-19323
第三個	-19324
會展	-19325
年前嘅	-19326
想試吓	-19327
個條	-19328
庭上	-19329
▁連儂	-19330
出聲明	-19331
▁據瞭解	-19332
呢支	-19333
富翁	-19334
方舟	-19335
曉明	-19336
仆街嚟	-19337
做選民	-19338
應該同	-19339
都唔知自己	-19340
件貨	-19341
帶過	-19342
快線	-19343
進退	-19344
▁生命	-19345
我本身	-19346
被稱為	-19347
或者其他	-19348
ly	-19349
至上	-19350
我好似	-19351
▁香港嘅	-19352
子孫	-19353
打多	-19354
汪汪	-19355
要問	-19356
▁直頭	-19357
先唔會	-19358
殘殺	-19359
碌柒	-19360
衣家	-19361
要到	-19362
迫你	-19363
咁鐘意	-19364
嘅一面	-19365
有自信	-19366
係小	-19367
卓廷	-19368
時正	-19369
有毒	-19370
921	-19371
大罷工	-19372
$300	-19373
▁佢之前	-19374
販民	-19375
(20	-19376
▁場場	-19377
幾好笑	-19378
鰂魚湧	-19379
合力	-19380
噪音	-19381
忍耐	-19382
說完	-19383
轉載	-19384
農夫	-19385
張國榮	-19386
中女	-19387
仲識	-19388
挑機	-19389
的老	-19390
開關	-19391
未必有	-19392
▁想當年	-19393
▁U	-19394
怒火	-19395
照計	-19396
贏曬	-19397
都可以話	-19398
▁遠	-19399
先定	-19400
拖鞋	-19401
死於	-19402
顧及	-19403
▁比佢	-19404
▁終極	-19405
▁或	-19406
咪唔	-19407
失憶	-19408
無窮	-19409
隨手	-19410
佢個女	-19411
可以睇吓	-19412
你屙尿嗰陣起	-19413
一聽	-19414
傾偈	-19415
唔是	-19416
有屎	-19417
決戰	-19418
科水	-19419
紅酒	-19420
(25	-19421
▁佢會	-19422
不過都	-19423
我地都	-19424
偽人	-19425
售價	-19426
盯著	-19427
可以當	-19428
嗰幾	-19429
回本	-19430
大脾	-19431
桌上	-19432
求你	-19433
震動	-19434
希望能	-19435
比人呃	-19436
都係為	-19437
千其唔好	-19438
這條	-19439
冇意思	-19440
再加埋	-19441
呢句野	-19442
嘅空間	-19443
抑鬱症	-19444
社會服務	-19445
某人	-19446
紅軍	-19447
講一句	-19448
▁你呢啲	-19449
自言自語	-19450
不和	-19451
前任	-19452
原有	-19453
城牆	-19454
寧靜	-19455
操守	-19456
新北	-19457
橙色	-19458
馬匹	-19459
▁平均	-19460
你今日	-19461
個人認為	-19462
應該都會	-19463
,2019	-19464
▁退	-19465
人次	-19466
呢球	-19467
置身	-19468
誹謗	-19469
識睇	-19470
只會係	-19471
大嗌	-19472
懦夫	-19473
紅的	-19474
係邊到	-19475
所以有	-19476
分力	-19477
呆咗	-19478
回鄉	-19479
▁小妹	-19480
▁補充	-19481
寄生蟲	-19482
成日有	-19483
香港隊	-19484
▁到依家	-19485
真係好辛苦	-19486
▁剛	-19487
▁樂	-19488
平面	-19489
手製	-19490
勞工處	-19491
最有效	-19492
呢個角色	-19493
土生土長	-19494
維護國家安全	-19495
係啦	-19496
化解	-19497
死城	-19498
落閘	-19499
進食	-19500
餐餐	-19501
依樣野	-19502
而家又	-19503
民陣遊行	-19504
商量	-19505
坐喺	-19506
神仙	-19507
先算啦	-19508
玩電話	-19509
▁我心諗	-19510
主流民意	-19511
的香港人	-19512
兩倍	-19513
成真	-19514
搞過	-19515
約有	-19516
諗咩	-19517
長短	-19518
馬達	-19519
去唔去	-19520
星加坡	-19521
樓主你	-19522
任何日子	-19523
▁零	-19524
、7	-19525
咁想	-19526
太勁	-19527
慢咗	-19528
水池	-19529
▁咁啱	-19530
佢之前	-19531
外國護照	-19532
牙利	-19533
車門	-19534
咁多日	-19535
尼菲特	-19536
無撚用	-19537
▁最慘係	-19538
)/	-19539
主播	-19540
住民	-19541
個刻	-19542
喫力	-19543
用落	-19544
總係	-19545
解說	-19546
▁陳雲	-19547
唔會理	-19548
▁套	-19549
後上	-19550
死不	-19551
程車	-19552
重回	-19553
重疊	-19554
防反	-19555
馬騮	-19556
▁也許	-19557
數一數	-19558
比政府	-19559
足球會	-19560
可以唔洗	-19561
-5	-19562
定咩	-19563
成都	-19564
棒球	-19565
盾牌	-19566
算帳	-19567
就冇得	-19568
獨裁者	-19569
的主要	-19570
真正正	-19571
:《	-19572
保費	-19573
啊屌	-19574
室外	-19575
曙光	-19576
||	-19577
大街	-19578
狼王	-19579
簡易	-19580
花費	-19581
隆拿	-19582
▁動畫	-19583
最後一場	-19584
!!!!!!	-19585
▁深	-19586
墮胎	-19587
夠多	-19588
嘅速度	-19589
女事主	-19590
點解釋	-19591
帶隊	-19592
肥咗	-19593
6-7	-19594
嘅經歷	-19595
搞出嚟	-19596
跌落嚟	-19597
上市公司	-19598
亞運	-19599
奧燒	-19600
▁我諗住	-19601
▁日本人	-19602
完約	-19603
早洩	-19604
死球	-19605
騙局	-19606
察覺到	-19607
跟唔上	-19608
截停	-19609
無神	-19610
狹窄	-19611
管理員	-19612
▁如果有人	-19613
之為	-19614
加錢	-19615
古老	-19616
嘲諷	-19617
殺了	-19618
▁你叫	-19619
俾人知	-19620
做得到	-19621
冇能力	-19622
小妹妹	-19623
市民的	-19624
▁我發覺	-19625
沒了	-19626
煲大	-19627
直接去	-19628
而不見	-19629
角度睇	-19630
志明	-19631
票價	-19632
要收	-19633
唔撚明	-19634
永遠都唔會	-19635
加工	-19636
恰當	-19637
月前	-19638
▁報導	-19639
東江水	-19640
▁所以咪話	-19641
冷卻	-19642
咗錢	-19643
日本的	-19644
有民主	-19645
果個係	-19646
都係人	-19647
都講過	-19648
保育	-19649
同等	-19650
完畢	-19651
家教	-19652
必勝	-19653
白警	-19654
順勢	-19655
0.0	-19656
▁師傅	-19657
7.21	-19658
唔係好明	-19659
桃園	-19660
較大	-19661
▁阿狗	-19662
不了了	-19663
做過咩	-19664
都唔驚	-19665
根本沒有	-19666
傷風	-19667
又廢	-19668
惠康	-19669
抗共	-19670
走近	-19671
又點話	-19672
咁開心	-19673
唔見得	-19674
壓力測試	-19675
屌人老母	-19676
香港真係	-19677
中段	-19678
淑儀	-19679
白銀	-19680
眼紅	-19681
想嘔	-19682
謬誤	-19683
去邊度	-19684
去世	-19685
大風	-19686
懦弱	-19687
火牛	-19688
6.5	-19689
▁漫畫	-19690
唔同人	-19691
好嚴重	-19692
無乜人	-19693
住客	-19694
咁仲	-19695
期權	-19696
江蘇	-19697
落返	-19698
龍蝦	-19699
用電腦	-19700
臺積電	-19701
諸葛亮	-19702
▁就可以	-19703
最後一日	-19704
不解	-19705
成的	-19706
手無	-19707
期指	-19708
稍微	-19709
係出面	-19710
se	-19711
依句	-19712
幫過	-19713
抄襲	-19714
是從	-19715
買啲	-19716
鯉魚	-19717
▁投票	-19718
袁世凱	-19719
列出	-19720
命名	-19721
萬年	-19722
都係唔	-19723
其實好多	-19724
好似有啲	-19725
男人老狗	-19726
絕大部份	-19727
▁希	-19728
憎佢	-19729
窒息	-19730
緊人	-19731
西望	-19732
反對聲音	-19733
胡椒噴霧	-19734
作對	-19735
係喎	-19736
呃你	-19737
時大	-19738
依家啲	-19739
佢地兩個	-19740
嘅可能性	-19741
▁共	-19742
▁憑	-19743
式的	-19744
我得	-19745
新城	-19746
道門	-19747
都不能少	-19748
拍劇	-19749
挑起	-19750
槍手	-19751
涵蓋	-19752
練波	-19753
補血	-19754
風流	-19755
近幾年	-19756
。[	-19757
弱者	-19758
海賊	-19759
生到	-19760
瞄準	-19761
融資	-19762
解決咗	-19763
同鄉	-19764
靈感	-19765
一出世	-19766
你同我	-19767
富裕	-19768
愚蠢	-19769
放落	-19770
進程	-19771
三分鐘	-19772
有道理	-19773
邊個位	-19774
鄭若驊	-19775
佔有	-19776
原名	-19777
欺負	-19778
番學	-19779
皮幾	-19780
係天	-19781
應份	-19782
爆哂	-19783
膨脹	-19784
麻甩	-19785
一小時	-19786
在我的	-19787
個牌	-19788
接連	-19789
畫質	-19790
行徑	-19791
係比較	-19792
▁如果唔	-19793
▁我發現	-19794
唔會好似	-19795
英國政府	-19796
作供	-19797
又俾	-19798
影住	-19799
陶傑	-19800
▁唔關	-19801
中國在	-19802
人類的	-19803
頂得住	-19804
一大班人	-19805
四次	-19806
專屬	-19807
▁歐聯	-19808
同以前	-19809
我係咪	-19810
都要去	-19811
離開咗	-19812
▁出生日期	-19813
受有關條款及細則	-19814
上畫	-19815
不回	-19816
洋腸	-19817
著手	-19818
唔係幾	-19819
常委會	-19820
寫的	-19821
小腿	-19822
樹林	-19823
溫馨	-19824
祖雲	-19825
股權	-19826
鬥氣	-19827
喺邊度	-19828
歲男子	-19829
▁多謝巴打	-19830
使我	-19831
停工	-19832
嘅前	-19833
補救	-19834
要玩	-19835
ver	-19836
iuTV	-19837
唔好忘記	-19838
點解會咁	-19839
個款	-19840
痛心	-19841
黑絲	-19842
就知佢	-19843
最後都	-19844
▁咁你咪	-19845
實情	-19846
小松	-19847
競賽	-19848
更好嘅	-19849
都有用	-19850
卡爾	-19851
又剩	-19852
徘徊	-19853
磨擦	-19854
西隧	-19855
逼搶	-19856
▁in	-19857
▁巴西	-19858
咁撚廢	-19859
唔到啦	-19860
性暴力	-19861
對策	-19862
揭露	-19863
都見	-19864
政務司	-19865
再說	-19866
架仔	-19867
難忘	-19868
▁這時	-19869
一大輪	-19870
唔係一個	-19871
迴流	-19872
頂尖	-19873
不信任	-19874
▁餘	-19875
上蓋	-19876
圍毆	-19877
廢過	-19878
撚硬	-19879
▁而我	-19880
出入境	-19881
都有講	-19882
(8	-19883
亞太	-19884
場外	-19885
學咗	-19886
就換	-19887
排球	-19888
東部	-19889
神明	-19890
▁一人	-19891
但係你	-19892
動物園	-19893
唔理佢	-19894
.-	-19895
危疾	-19896
歸屬	-19897
上網搵	-19898
學人講	-19899
就唔撚	-19900
自己對	-19901
都有唔少	-19902
又同	-19903
無懼	-19904
王者	-19905
要先	-19906
▁本地	-19907
衞生署	-19908
不單	-19909
在上	-19910
家俊	-19911
海景	-19912
絕育	-19913
開刀	-19914
黨派	-19915
搜查令	-19916
自殺報道	-19917
出吓	-19918
出車	-19919
呢期	-19920
年啦	-19921
臺中	-19922
週刊	-19923
922	-19924
想搵人	-19925
自欺欺	-19926
亂倫	-19927
側面	-19928
嚟都	-19929
少爺	-19930
阻到	-19931
食飽	-19932
▁但一	-19933
▁唔得	-19934
彈出嚟	-19935
想知道	-19936
的動作	-19937
總經理	-19938
乜水	-19939
呀姐	-19940
就搞	-19941
或會	-19942
買貴	-19943
順風	-19944
+10	-19945
▁不斷	-19946
▁二來	-19947
看到了	-19948
經濟體	-19949
返嚟嘅	-19950
▁兩個人	-19951
我地香港人	-19952
光速	-19953
布袋	-19954
無料	-19955
落入	-19956
防範	-19957
就會變	-19958
▁球	-19959
拎曬	-19960
三個鐘	-19961
入決賽	-19962
▁作為一個	-19963
▁我反而覺得	-19964
到出	-19965
都高	-19966
好後悔	-19967
被罷工	-19968
通常會	-19969
=7	-19970
買餸	-19971
類比	-19972
喺入面	-19973
而為	-19974
負荷	-19975
同之前	-19976
平半	-19977
秒殺	-19978
要由	-19979
難打	-19980
▁你冇	-19981
居留權	-19982
我老婆	-19983
加泰集會	-19984
娛百	-19985
res	-19986
瞓著咗	-19987
原罪	-19988
告你	-19989
氛圍	-19990
腦殘	-19991
舊版	-19992
頂帽	-19993
:12	-19994
你想點	-19995
改良	-19996
無緣	-19997
紅旗	-19998
翻新	-19999
菩薩	-20000
貫徹	-20001
香味	-20002
禮賓府	-20003
試當真	-20004
▁冇記錯	-20005
▁老老豆豆	-20006
嘅姐	-20007
幾何	-20008
有水	-20009
289	-20010
▁美帝	-20011
你鍾意	-20012
要面對	-20013
輸到仆街	-20014
無賴	-20015
1.4	-20016
愛回家	-20017
班底	-20018
睇少	-20019
約佢	-20020
過吓	-20021
▁下午	-20022
到時候	-20023
生出嚟	-20024
可以接受	-20025
屯門公園	-20026
不散	-20027
住所	-20028
受審	-20029
此前	-20030
賤民	-20031
迫佢	-20032
防火	-20033
最好睇	-20034
▁你都係	-20035
▁實際上	-20036
▁而家啲	-20037
ph	-20038
完錢	-20039
時就	-20040
海域	-20041
疑慮	-20042
但都要	-20043
佢地個	-20044
比你睇	-20045
答案係	-20046
▁誠	-20047
傳教	-20048
充公	-20049
天鵝	-20050
幫兇	-20051
搏命	-20052
每位	-20053
法比	-20054
簡體	-20055
罪證	-20056
要轉	-20057
￼￼	-20058
唔係咁易	-20059
▁咦	-20060
全天	-20061
另加	-20062
椅子	-20063
極低	-20064
與我	-20065
要塞	-20066
要幫	-20067
馬明	-20068
▁我買	-20069
你講嘅	-20070
年已經	-20071
敘利亞	-20072
旅遊業	-20073
▁上半場	-20074
唔會因為	-20075
完全唔識	-20076
最重要嘅	-20077
三級	-20078
冠聰	-20079
答到	-20080
運算	-20081
都嫌	-20082
龍獅	-20083
(24	-20084
▁天文	-20085
▁銅鑼灣	-20086
再推	-20087
大敗	-20088
倫敦金	-20089
衝入去	-20090
連尼住	-20091
凝視	-20092
原版	-20093
夾住	-20094
今天的	-20095
個結果	-20096
敬請	-20097
派咗	-20098
神嘅	-20099
苦笑	-20100
陶宛	-20101
雙向	-20102
佢地咁	-20103
心寒	-20104
行返	-20105
鮑魚	-20106
黨的	-20107
▁只會	-20108
▁平日	-20109
其實幾	-20110
都繼續	-20111
▁五大訴求	-20112
元老	-20113
去學	-20114
跳到	-20115
輸得	-20116
,14	-20117
勁多人	-20118
▁但係你	-20119
香港編年史	-20120
你屙尿嗰陣起左腳定右腳	-20121
伺服	-20122
似樣	-20123
客廳	-20124
我已	-20125
正規	-20126
皆因	-20127
要帶	-20128
青蛙	-20129
二噁英	-20130
廿幾歲	-20131
民賤聯	-20132
返到嚟	-20133
關我撚事	-20134
101112113	-20135
▁租	-20136
住院	-20137
無嘢	-20138
索償	-20139
係咩事	-20140
屌鳩佢	-20141
由得佢	-20142
邊個做	-20143
▁早幾年	-20144
▁其實大家	-20145
圍威	-20146
收兵	-20147
最為	-20148
禍害	-20149
▁若果	-20150
去中國	-20151
咁落去	-20152
嘅思想	-20153
公屋居屋	-20154
事態	-20155
初衷	-20156
太后	-20157
硬碰	-20158
稀有	-20159
蓄意	-20160
都賣	-20161
匈牙利	-20162
非常之	-20163
都會覺得	-20164
但喺	-20165
和他	-20166
學科	-20167
跟到	-20168
想想	-20169
炒賣	-20170
第十	-20171
豬瘟	-20172
▁決定	-20173
的模樣	-20174
不設	-20175
特意	-20176
觸碰	-20177
醜惡	-20178
冇機會	-20179
呢幾個	-20180
男一女	-20181
老爺	-20182
▁嗰啲	-20183
好似你	-20184
都唔入	-20185
都唔奇	-20186
冷震	-20187
強嘅	-20188
彈入	-20189
整親	-20190
何文田	-20191
當中包括	-20192
▁嘉	-20193
向你	-20194
波子	-20195
花紅	-20196
起伏	-20197
電費	-20198
出問題	-20199
過唔過	-20200
係唔可以	-20201
視而不見	-20202
▁親	-20203
個故	-20204
咬住	-20205
最長	-20206
機嘅	-20207
的血	-20208
稅收	-20209
唔肯定	-20210
佢地真係	-20211
冇位	-20212
浸大	-20213
狗嚟	-20214
留個	-20215
秒回	-20216
驚死	-20217
先係真	-20218
最需要	-20219
法西斯	-20220
仲有幾多	-20221
支唔支持	-20222
▁g	-20223
嶽橋	-20224
極之	-20225
先發覺	-20226
條撚屌	-20227
自己鍾意	-20228
全靠	-20229
向她	-20230
圖像	-20231
新盤	-20232
移居	-20233
聚焦	-20234
著你	-20235
要把	-20236
高爾	-20237
有意思	-20238
▁你依家	-20239
▁我就唔	-20240
單拖	-20241
腳下	-20242
178	-20243
唔夠好	-20244
自己打	-20245
休閒	-20246
啲車	-20247
美術	-20248
重整	-20249
馬田	-20250
[...]
